<unk>	0
<s>	0
</s>	0
<0x00>	0
<0x01>	0
<0x02>	0
<0x03>	0
<0x04>	0
<0x05>	0
<0x06>	0
<0x07>	0
<0x08>	0
<0x09>	0
<0x0A>	0
<0x0B>	0
<0x0C>	0
<0x0D>	0
<0x0E>	0
<0x0F>	0
<0x10>	0
<0x11>	0
<0x12>	0
<0x13>	0
<0x14>	0
<0x15>	0
<0x16>	0
<0x17>	0
<0x18>	0
<0x19>	0
<0x1A>	0
<0x1B>	0
<0x1C>	0
<0x1D>	0
<0x1E>	0
<0x1F>	0
<0x20>	0
<0x21>	0
<0x22>	0
<0x23>	0
<0x24>	0
<0x25>	0
<0x26>	0
<0x27>	0
<0x28>	0
<0x29>	0
<0x2A>	0
<0x2B>	0
<0x2C>	0
<0x2D>	0
<0x2E>	0
<0x2F>	0
<0x30>	0
<0x31>	0
<0x32>	0
<0x33>	0
<0x34>	0
<0x35>	0
<0x36>	0
<0x37>	0
<0x38>	0
<0x39>	0
<0x3A>	0
<0x3B>	0
<0x3C>	0
<0x3D>	0
<0x3E>	0
<0x3F>	0
<0x40>	0
<0x41>	0
<0x42>	0
<0x43>	0
<0x44>	0
<0x45>	0
<0x46>	0
<0x47>	0
<0x48>	0
<0x49>	0
<0x4A>	0
<0x4B>	0
<0x4C>	0
<0x4D>	0
<0x4E>	0
<0x4F>	0
<0x50>	0
<0x51>	0
<0x52>	0
<0x53>	0
<0x54>	0
<0x55>	0
<0x56>	0
<0x57>	0
<0x58>	0
<0x59>	0
<0x5A>	0
<0x5B>	0
<0x5C>	0
<0x5D>	0
<0x5E>	0
<0x5F>	0
<0x60>	0
<0x61>	0
<0x62>	0
<0x63>	0
<0x64>	0
<0x65>	0
<0x66>	0
<0x67>	0
<0x68>	0
<0x69>	0
<0x6A>	0
<0x6B>	0
<0x6C>	0
<0x6D>	0
<0x6E>	0
<0x6F>	0
<0x70>	0
<0x71>	0
<0x72>	0
<0x73>	0
<0x74>	0
<0x75>	0
<0x76>	0
<0x77>	0
<0x78>	0
<0x79>	0
<0x7A>	0
<0x7B>	0
<0x7C>	0
<0x7D>	0
<0x7E>	0
<0x7F>	0
<0x80>	0
<0x81>	0
<0x82>	0
<0x83>	0
<0x84>	0
<0x85>	0
<0x86>	0
<0x87>	0
<0x88>	0
<0x89>	0
<0x8A>	0
<0x8B>	0
<0x8C>	0
<0x8D>	0
<0x8E>	0
<0x8F>	0
<0x90>	0
<0x91>	0
<0x92>	0
<0x93>	0
<0x94>	0
<0x95>	0
<0x96>	0
<0x97>	0
<0x98>	0
<0x99>	0
<0x9A>	0
<0x9B>	0
<0x9C>	0
<0x9D>	0
<0x9E>	0
<0x9F>	0
<0xA0>	0
<0xA1>	0
<0xA2>	0
<0xA3>	0
<0xA4>	0
<0xA5>	0
<0xA6>	0
<0xA7>	0
<0xA8>	0
<0xA9>	0
<0xAA>	0
<0xAB>	0
<0xAC>	0
<0xAD>	0
<0xAE>	0
<0xAF>	0
<0xB0>	0
<0xB1>	0
<0xB2>	0
<0xB3>	0
<0xB4>	0
<0xB5>	0
<0xB6>	0
<0xB7>	0
<0xB8>	0
<0xB9>	0
<0xBA>	0
<0xBB>	0
<0xBC>	0
<0xBD>	0
<0xBE>	0
<0xBF>	0
<0xC0>	0
<0xC1>	0
<0xC2>	0
<0xC3>	0
<0xC4>	0
<0xC5>	0
<0xC6>	0
<0xC7>	0
<0xC8>	0
<0xC9>	0
<0xCA>	0
<0xCB>	0
<0xCC>	0
<0xCD>	0
<0xCE>	0
<0xCF>	0
<0xD0>	0
<0xD1>	0
<0xD2>	0
<0xD3>	0
<0xD4>	0
<0xD5>	0
<0xD6>	0
<0xD7>	0
<0xD8>	0
<0xD9>	0
<0xDA>	0
<0xDB>	0
<0xDC>	0
<0xDD>	0
<0xDE>	0
<0xDF>	0
<0xE0>	0
<0xE1>	0
<0xE2>	0
<0xE3>	0
<0xE4>	0
<0xE5>	0
<0xE6>	0
<0xE7>	0
<0xE8>	0
<0xE9>	0
<0xEA>	0
<0xEB>	0
<0xEC>	0
<0xED>	0
<0xEE>	0
<0xEF>	0
<0xF0>	0
<0xF1>	0
<0xF2>	0
<0xF3>	0
<0xF4>	0
<0xF5>	0
<0xF6>	0
<0xF7>	0
<0xF8>	0
<0xF9>	0
<0xFA>	0
<0xFB>	0
<0xFC>	0
<0xFD>	0
<0xFE>	0
<0xFF>	0
▁t	-0
he	-1
▁a	-2
ou	-3
▁s	-4
▁m	-5
▁w	-6
in	-7
re	-8
ha	-9
▁the	-10
nd	-11
▁b	-12
is	-13
or	-14
▁f	-15
▁I	-16
er	-17
ll	-18
it	-19
on	-20
▁d	-21
▁c	-22
▁y	-23
▁n	-24
es	-25
▁l	-26
en	-27
▁th	-28
ar	-29
▁to	-30
▁o	-31
▁h	-32
▁you	-33
▁T	-34
▁p	-35
hat	-36
▁A	-37
▁he	-38
ot	-39
st	-40
ve	-41
▁and	-42
ow	-43
ing	-44
▁of	-45
an	-46
om	-47
▁g	-48
at	-49
▁be	-50
▁W	-51
se	-52
▁my	-53
▁in	-54
ce	-55
▁ha	-56
le	-57
ay	-58
et	-59
ld	-60
ir	-61
ed	-62
ut	-63
▁me	-64
▁B	-65
▁S	-66
im	-67
ith	-68
▁not	-69
▁H	-70
ch	-71
▁is	-72
▁that	-73
gh	-74
▁And	-75
▁M	-76
▁for	-77
▁u	-78
▁C	-79
ke	-80
▁we	-81
our	-82
oo	-83
▁e	-84
ill	-85
her	-86
▁with	-87
▁your	-88
▁it	-89
ent	-90
ad	-91
▁O	-92
ri	-93
▁st	-94
▁thou	-95
▁k	-96
▁L	-97
ome	-98
▁his	-99
▁F	-100
ght	-101
EN	-102
▁G	-103
ord	-104
▁re	-105
id	-106
IN	-107
▁The	-108
▁him	-109
▁have	-110
ly	-111
ra	-112
▁li	-113
▁P	-114
IO	-115
as	-116
▁so	-117
▁this	-118
ur	-119
al	-120
▁as	-121
▁de	-122
▁on	-123
▁R	-124
ore	-125
ro	-126
▁N	-127
hi	-128
ould	-129
ood	-130
AR	-131
ck	-132
ain	-133
▁Y	-134
▁sha	-135
▁do	-136
ess	-137
ver	-138
▁thy	-139
est	-140
▁se	-141
▁will	-142
▁no	-143
▁E	-144
am	-145
▁D	-146
us	-147
▁but	-148
US	-149
ge	-150
if	-151
ea	-152
▁all	-153
▁'	-154
▁Th	-155
▁su	-156
▁To	-157
ake	-158
and	-159
▁her	-160
▁an	-161
ter	-162
ru	-163
ion	-164
ard	-165
▁K	-166
▁sp	-167
▁thee	-168
ell	-169
▁lo	-170
▁shall	-171
han	-172
UC	-173
▁our	-174
ear	-175
th	-176
▁by	-177
▁are	-178
▁fa	-179
ING	-180
il	-181
▁kn	-182
OR	-183
▁ne	-184
rom	-185
ho	-186
▁That	-187
ER	-188
ct	-189
▁v	-190
▁what	-191
ast	-192
▁sh	-193
ous	-194
ET	-195
▁up	-196
ight	-197
ant	-198
sel	-199
▁But	-200
▁mu	-201
art	-202
▁good	-203
qu	-204
ath	-205
row	-206
hich	-207
▁V	-208
ul	-209
▁lord	-210
ine	-211
one	-212
▁pr	-213
▁com	-214
nt	-215
▁man	-216
▁whe	-217
▁What	-218
end	-219
▁at	-220
▁con	-221
▁am	-222
ES	-223
ic	-224
▁she	-225
ong	-226
ry	-227
▁bl	-228
ble	-229
ven	-230
ie	-231
▁go	-232
▁them	-233
▁from	-234
ive	-235
▁more	-236
▁now	-237
other	-238
em	-239
▁was	-240
▁He	-241
IC	-242
▁For	-243
au	-244
out	-245
res	-246
ol	-247
▁hat	-248
▁sir	-249
oth	-250
▁would	-251
▁know	-252
AN	-253
▁there	-254
ind	-255
▁can	-256
▁if	-257
LO	-258
ond	-259
ers	-260
self	-261
ate	-262
ost	-263
▁sw	-264
▁or	-265
ather	-266
ep	-267
fe	-268
▁KING	-269
▁here	-270
--	-271
IUS	-272
▁br	-273
ARD	-274
▁say	-275
pp	-276
▁us	-277
▁My	-278
▁than	-279
▁their	-280
are	-281
▁love	-282
▁ar	-283
all	-284
▁then	-285
▁king	-286
▁they	-287
▁un	-288
▁let	-289
od	-290
▁wor	-291
hy	-292
ure	-293
KE	-294
▁Whe	-295
▁qu	-296
▁may	-297
▁well	-298
ink	-299
ook	-300
ig	-301
ort	-302
fore	-303
▁come	-304
▁As	-305
ame	-306
irst	-307
LI	-308
ish	-309
ves	-310
▁hath	-311
el	-312
ak	-313
▁one	-314
ng	-315
▁see	-316
▁j	-317
reat	-318
▁make	-319
▁must	-320
▁You	-321
gain	-322
▁were	-323
ound	-324
▁like	-325
ue	-326
▁ho	-327
▁gra	-328
ci	-329
TIO	-330
▁should	-331
▁pl	-332
OM	-333
▁upon	-334
▁had	-335
▁mad	-336
▁too	-337
▁sa	-338
pe	-339
▁father	-340
▁did	-341
ity	-342
eak	-343
▁pro	-344
▁J	-345
▁death	-346
um	-347
ime	-348
▁which	-349
ice	-350
ist	-351
▁en	-352
ward	-353
▁fri	-354
ON	-355
▁how	-356
UKE	-357
▁DUKE	-358
▁when	-359
▁If	-360
own	-361
▁po	-362
ose	-363
ence	-364
pt	-365
▁tru	-366
ICH	-367
▁speak	-368
OL	-369
de	-370
ful	-371
▁RICH	-372
entle	-373
▁heart	-374
▁again	-375
ENTIO	-376
ick	-377
man	-378
▁With	-379
▁yet	-380
▁hand	-381
io	-382
un	-383
ire	-384
▁out	-385
▁Thou	-386
▁Which	-387
▁RICHARD	-388
▁who	-389
▁r	-390
ince	-391
INC	-392
ack	-393
nce	-394
▁We	-395
▁In	-396
▁some	-397
▁mar	-398
oy	-399
▁son	-400
har	-401
ign	-402
ness	-403
very	-404
▁First	-405
▁dis	-406
▁off	-407
▁brother	-408
ies	-409
ance	-410
▁Why	-411
▁hea	-412
▁day	-413
▁hear	-414
▁Of	-415
▁mine	-416
▁such	-417
ec	-418
orn	-419
▁So	-420
▁hon	-421
EL	-422
▁al	-423
▁ro	-424
wn	-425
ither	-426
▁look	-427
▁ex	-428
▁blood	-429
▁ab	-430
▁these	-431
eet	-432
▁God	-433
▁time	-434
▁Cl	-435
▁friend	-436
ise	-437
▁ey	-438
UCH	-439
▁No	-440
▁Lord	-441
▁word	-442
ave	-443
erv	-444
▁ear	-445
▁give	-446
▁This	-447
oul	-448
▁How	-449
EST	-450
ther	-451
▁tell	-452
ef	-453
▁Come	-454
AB	-455
▁II	-456
▁Is	-457
ady	-458
een	-459
▁fo	-460
▁ri	-461
▁life	-462
▁take	-463
ag	-464
LOUC	-465
ESTER	-466
▁GLOUC	-467
▁GLOUCESTER	-468
▁think	-469
▁where	-470
UE	-471
age	-472
▁OF	-473
ings	-474
▁des	-475
rown	-476
▁gentle	-477
▁U	-478
▁VINC	-479
▁VINCENTIO	-480
urse	-481
▁much	-482
RY	-483
▁Where	-484
▁Q	-485
LAN	-486
▁made	-487
tis	-488
ust	-489
▁art	-490
▁sl	-491
ase	-492
▁Rome	-493
UM	-494
AM	-495
▁fear	-496
▁most	-497
way	-498
▁fl	-499
urn	-500
▁hast	-501
▁tw	-502
▁lea	-503
ENRY	-504
UEEN	-505
▁Mar	-506
▁Who	-507
▁HENRY	-508
▁QUEEN	-509
ber	-510
▁war	-511
▁great	-512
▁Now	-513
aught	-514
▁bet	-515
▁cou	-516
ee	-517
orrow	-518
▁Your	-519
not	-520
ss	-521
ORK	-522
tle	-523
▁YORK	-524
▁honour	-525
ST	-526
▁Be	-527
AU	-528
ved	-529
▁ra	-530
▁bre	-531
ff	-532
▁AN	-533
hing	-534
▁any	-535
▁sweet	-536
▁heaven	-537
▁Or	-538
ough	-539
▁new	-540
▁fair	-541
ower	-542
iz	-543
ment	-544
aster	-545
ap	-546
▁PET	-547
▁part	-548
▁ad	-549
▁pre	-550
▁call	-551
▁never	-552
▁men	-553
▁true	-554
ide	-555
igh	-556
▁It	-557
▁cannot	-558
old	-559
uke	-560
ree	-561
▁cl	-562
▁wr	-563
▁LUC	-564
ation	-565
▁way	-566
EO	-567
cc	-568
OMEO	-569
INIUS	-570
▁doth	-571
▁ROMEO	-572
▁been	-573
▁done	-574
▁name	-575
▁other	-576
ple	-577
ouse	-578
▁mean	-579
ife	-580
red	-581
▁noble	-582
ace	-583
▁own	-584
▁per	-585
▁pray	-586
UT	-587
aw	-588
ull	-589
▁ple	-590
▁head	-591
▁stand	-592
RO	-593
▁GR	-594
▁When	-595
AP	-596
DW	-597
▁mo	-598
▁tr	-599
▁EDW	-600
▁soul	-601
▁There	-602
▁world	-603
▁EDWARD	-604
,--	-605
▁pres	-606
ving	-607
les	-608
▁An	-609
▁Ed	-610
▁sc	-611
ENEN	-612
RUCH	-613
▁comm	-614
RUCHIO	-615
▁MENEN	-616
▁MENENIUS	-617
▁PETRUCHIO	-618
ears	-619
▁chi	-620
▁very	-621
▁Edward	-622
li	-623
▁both	-624
▁night	-625
▁queen	-626
TH	-627
TES	-628
ger	-629
ORIO	-630
ause	-631
▁app	-632
▁nor	-633
LANUS	-634
▁CORIO	-635
▁CORIOLANUS	-636
▁Here	-637
▁down	-638
▁eyes	-639
aughter	-640
▁before	-641
ilt	-642
▁Let	-643
▁rem	-644
▁bear	-645
ass	-646
able	-647
aint	-648
▁beg	-649
▁ke	-650
▁Sec	-651
▁Second	-652
▁myself	-653
ab	-654
▁im	-655
ress	-656
▁She	-657
▁being	-658
▁mother	-659
per	-660
▁Ay	-661
land	-662
▁arm	-663
ite	-664
▁Than	-665
▁cont	-666
▁dead	-667
▁leave	-668
INA	-669
▁thus	-670
▁ma	-671
▁wh	-672
less	-673
▁old	-674
ran	-675
▁By	-676
▁LE	-677
atch	-678
itiz	-679
▁MAR	-680
▁Nor	-681
▁die	-682
▁ever	-683
▁stay	-684
itizen	-685
▁grace	-686
▁friends	-687
▁int	-688
lo	-689
▁Go	-690
▁Sir	-691
▁long	-692
▁wife	-693
nto	-694
▁pe	-695
▁Then	-696
▁away	-697
▁live	-698
▁child	-699
eace	-700
▁rep	-701
▁comes	-702
ps	-703
▁III	-704
▁wom	-705
▁crown	-706
▁af	-707
come	-708
nder	-709
▁wit	-710
▁might	-711
ile	-712
▁ru	-713
wick	-714
▁War	-715
▁house	-716
▁nothing	-717
oud	-718
▁le	-719
ks	-720
int	-721
▁har	-722
ction	-723
▁many	-724
▁Warwick	-725
▁poor	-726
▁rest	-727
▁His	-728
LA	-729
SAB	-730
che	-731
iss	-732
ors	-733
ELLA	-734
▁set	-735
▁ISAB	-736
▁thought	-737
▁ISABELLA	-738
sw	-739
ULI	-740
erc	-741
ows	-742
rant	-743
well	-744
▁ent	-745
ULIET	-746
▁JULIET	-747
Tis	-748
ison	-749
atter	-750
▁Romeo	-751
▁daughter	-752
CA	-753
me	-754
▁lie	-755
▁res	-756
▁tri	-757
▁Serv	-758
▁cons	-759
▁better	-760
CE	-761
▁VI	-762
ENCE	-763
▁Nay	-764
ONTES	-765
▁cour	-766
▁gone	-767
▁LEONTES	-768
AD	-769
os	-770
ADY	-771
uck	-772
▁St	-773
▁Not	-774
ought	-775
▁LADY	-776
▁tong	-777
▁those	-778
▁Citizen	-779
▁young	-780
▁prince	-781
RAN	-782
ier	-783
akes	-784
ford	-785
hall	-786
ittle	-787
▁Have	-788
▁keep	-789
ale	-790
lse	-791
ool	-792
▁On	-793
▁gri	-794
▁Well	-795
▁news	-796
for	-797
ian	-798
ious	-799
▁comp	-800
▁kind	-801
▁hence	-802
▁words	-803
hard	-804
▁Pro	-805
▁hour	-806
▁hus	-807
▁sle	-808
▁tre	-809
▁two	-810
▁first	-811
▁against	-812
ft	-813
ied	-814
men	-815
ret	-816
▁CL	-817
▁end	-818
▁thing	-819
▁little	-820
EY	-821
ces	-822
ork	-823
▁SIC	-824
▁put	-825
▁best	-826
▁else	-827
▁lords	-828
▁still	-829
▁SICINIUS	-830
ius	-831
une	-832
▁sm	-833
ason	-834
band	-835
llow	-836
ardon	-837
iness	-838
▁LUCIO	-839
▁himself	-840
ins	-841
▁fe	-842
ople	-843
▁lady	-844
▁count	-845
▁peace	-846
▁husband	-847
ect	-848
ont	-849
▁gu	-850
ried	-851
▁Ric	-852
▁Thy	-853
▁acc	-854
▁cha	-855
▁hel	-856
▁pri	-857
▁pur	-858
▁sub	-859
▁face	-860
▁Richard	-861
AST	-862
sed	-863
uty	-864
▁BR	-865
▁co	-866
▁could	-867
HAM	-868
▁IV	-869
▁bri	-870
▁Will	-871
▁conf	-872
ail	-873
alk	-874
get	-875
yal	-876
cious	-877
▁York	-878
▁forth	-879
▁people	-880
▁tongue	-881
▁therefore	-882
ty	-883
ark	-884
ert	-885
led	-886
eech	-887
▁bid	-888
▁che	-889
▁tra	-890
▁back	-891
▁find	-892
▁hope	-893
▁need	-894
▁earth	-895
ud	-896
▁dear	-897
▁seem	-898
▁power	-899
UL	-900
ETH	-901
LIZ	-902
UCK	-903
APUL	-904
▁dre	-905
▁why	-906
ABETH	-907
▁BUCK	-908
▁ELIZ	-909
▁They	-910
APULET	-911
INGHAM	-912
▁right	-913
▁CAPULET	-914
▁ELIZABETH	-915
▁BUCKINGHAM	-916
GE	-917
RI	-918
cl	-919
lt	-920
▁imp	-921
▁Good	-922
▁char	-923
▁serv	-924
▁unto	-925
TI	-926
ged	-927
vere	-928
▁duke	-929
▁home	-930
▁once	-931
▁till	-932
▁Shall	-933
▁hands	-934
ield	-935
▁bra	-936
▁law	-937
ds	-938
▁Do	-939
orse	-940
▁All	-941
▁joy	-942
▁mist	-943
▁Nurse	-944
▁master	-945
ARW	-946
ESS	-947
ICK	-948
uth	-949
enry	-950
hile	-951
▁WARW	-952
▁high	-953
▁mind	-954
▁Henry	-955
▁since	-956
▁thine	-957
▁WARWICK	-958
ix	-959
IAN	-960
ray	-961
UTUS	-962
▁Yet	-963
▁From	-964
▁said	-965
▁BRUTUS	-966
▁though	-967
bt	-968
BRO	-969
ach	-970
hip	-971
ren	-972
rer	-973
ult	-974
▁BOL	-975
▁ban	-976
▁bod	-977
▁thr	-978
BROKE	-979
ister	-980
▁fell	-981
▁show	-982
▁cause	-983
▁BOLING	-984
▁BOLINGBROKE	-985
eth	-986
ousin	-987
▁none	-988
▁sorrow	-989
MIO	-990
ory	-991
fort	-992
▁bes	-993
▁dou	-994
▁after	-995
▁royal	-996
ird	-997
its	-998
▁gl	-999
roke	-1000
▁meet	-1001
▁bring	-1002
▁wrong	-1003
▁please	-1004
▁present	-1005
tw	-1006
ock	-1007
GELO	-1008
▁boy	-1009
▁ere	-1010
▁mis	-1011
▁fort	-1012
▁happ	-1013
▁help	-1014
▁whose	-1015
▁ANGELO	-1016
IL	-1017
ary	-1018
▁light	-1019
▁place	-1020
▁under	-1021
NE	-1022
ATH	-1023
SCA	-1024
▁Our	-1025
RANIO	-1026
▁came	-1027
▁chan	-1028
▁full	-1029
▁state	-1030
▁TRANIO	-1031
LUS	-1032
cle	-1033
iet	-1034
▁Sh	-1035
cent	-1036
▁bus	-1037
▁nat	-1038
▁ESCA	-1039
▁kill	-1040
▁pardon	-1041
▁ESCALUS	-1042
lf	-1043
mb	-1044
ORD	-1045
ates	-1046
vost	-1047
▁Eng	-1048
▁ste	-1049
▁land	-1050
▁pass	-1051
▁whom	-1052
selves	-1053
▁about	-1054
▁heard	-1055
▁shame	-1056
▁ob	-1057
cius	-1058
ject	-1059
sand	-1060
▁dep	-1061
▁dev	-1062
ARINA	-1063
ition	-1064
▁King	-1065
▁every	-1066
GAR	-1067
iol	-1068
▁ch	-1069
▁wo	-1070
esty	-1071
▁Are	-1072
▁fal	-1073
GARET	-1074
▁KATH	-1075
▁dost	-1076
▁less	-1077
▁makes	-1078
▁Marcius	-1079
▁MARGARET	-1080
▁thousand	-1081
▁KATHARINA	-1082
vy	-1083
ens	-1084
ove	-1085
deed	-1086
▁eye	-1087
▁enem	-1088
▁hate	-1089
▁hold	-1090
▁last	-1091
▁maid	-1092
▁tears	-1093
▁gentleman	-1094
air	-1095
irt	-1096
ons	-1097
▁Up	-1098
▁bu	-1099
AMIL	-1100
swer	-1101
▁GRE	-1102
▁kne	-1103
ceive	-1104
▁fall	-1105
▁follow	-1106
omet	-1107
pher	-1108
▁bel	-1109
▁sun	-1110
▁DUCH	-1111
▁coun	-1112
▁fool	-1113
▁weep	-1114
▁cousin	-1115
▁hither	-1116
▁DUCHESS	-1117
▁gracious	-1118
▁Un	-1119
ices	-1120
▁body	-1121
▁into	-1122
▁just	-1123
▁play	-1124
▁stre	-1125
arence	-1126
morrow	-1127
▁grief	-1128
▁woman	-1129
▁indeed	-1130
dd	-1131
ade	-1132
day	-1133
▁far	-1134
asure	-1135
▁Hath	-1136
▁over	-1137
▁court	-1138
▁sleep	-1139
▁Clarence	-1140
IA	-1141
RIAR	-1142
ling	-1143
▁pat	-1144
▁sec	-1145
▁wel	-1146
▁Ange	-1147
▁pers	-1148
▁sent	-1149
▁FRIAR	-1150
ENS	-1151
ORT	-1152
alt	-1153
ute	-1154
fect	-1155
▁Her	-1156
▁hum	-1157
▁ret	-1158
▁HORT	-1159
▁stri	-1160
▁turn	-1161
▁trait	-1162
▁Angelo	-1163
▁HORTENS	-1164
ERC	-1165
ans	-1166
eds	-1167
▁At	-1168
ieve	-1169
imes	-1170
urde	-1171
▁bed	-1172
▁Duke	-1173
▁inst	-1174
▁wilt	-1175
▁reven	-1176
▁sound	-1177
▁worth	-1178
▁answer	-1179
▁matter	-1180
▁comfort	-1181
▁country	-1182
▁HORTENSIO	-1183
▁i	-1184
ild	-1185
ury	-1186
▁Al	-1187
ount	-1188
▁Even	-1189
▁talk	-1190
▁vill	-1191
▁Would	-1192
▁doubt	-1193
▁false	-1194
▁rather	-1195
▁Provost	-1196
▁another	-1197
ily	-1198
▁vo	-1199
ouch	-1200
pect	-1201
▁dra	-1202
▁get	-1203
▁has	-1204
▁ser	-1205
▁Upon	-1206
▁even	-1207
▁lies	-1208
▁send	-1209
▁want	-1210
▁somet	-1211
▁sword	-1212
▁years	-1213
urderer	-1214
▁prison	-1215
▁fortune	-1216
▁business	-1217
.'	-1218
mp	-1219
itt	-1220
ator	-1221
▁cra	-1222
▁use	-1223
pherd	-1224
▁Were	-1225
▁Third	-1226
▁prove	-1227
▁breath	-1228
▁reason	-1229
YC	-1230
ms	-1231
der	-1232
OLYC	-1233
ised	-1234
▁AUT	-1235
▁adv	-1236
▁ass	-1237
▁att	-1238
▁saw	-1239
▁sea	-1240
ience	-1241
▁CLAR	-1242
▁Take	-1243
▁virt	-1244
OLYCUS	-1245
▁happy	-1246
▁stran	-1247
▁thank	-1248
▁enough	-1249
▁CLARENCE	-1250
▁LUCENTIO	-1251
▁AUTOLYCUS	-1252
ia	-1253
ken	-1254
▁Su	-1255
▁bo	-1256
INGS	-1257
ener	-1258
hold	-1259
▁HAST	-1260
▁wind	-1261
AMILLO	-1262
▁fault	-1263
▁fight	-1264
▁lives	-1265
▁proud	-1266
▁remem	-1267
▁shalt	-1268
▁banish	-1269
▁sovere	-1270
▁CAMILLO	-1271
▁HASTINGS	-1272
STA	-1273
▁ca	-1274
APTI	-1275
ENES	-1276
ercy	-1277
▁dan	-1278
▁Kate	-1279
▁care	-1280
▁disc	-1281
▁hang	-1282
▁stra	-1283
▁wish	-1284
▁BAPTI	-1285
▁Clown	-1286
▁fellow	-1287
▁Servant	-1288
▁welcome	-1289
▁BAPTISTA	-1290
,'	-1291
AUL	-1292
any	-1293
hal	-1294
pen	-1295
▁Ty	-1296
▁di	-1297
▁gi	-1298
▁gr	-1299
ches	-1300
▁COM	-1301
▁lay	-1302
▁sen	-1303
▁More	-1304
▁PAUL	-1305
▁arms	-1306
▁holy	-1307
▁prom	-1308
▁grave	-1309
▁PAULINA	-1310
▁COMINIUS	-1311
▁mistress	-1312
rong	-1313
▁mer	-1314
▁spo	-1315
▁Fare	-1316
▁fire	-1317
▁only	-1318
▁pity	-1319
▁tend	-1320
gainst	-1321
▁nature	-1322
▁within	-1323
▁subject	-1324
SP	-1325
ERO	-1326
NIA	-1327
OMP	-1328
OLUM	-1329
ROSP	-1330
pose	-1331
▁NOR	-1332
▁cur	-1333
▁den	-1334
▁Give	-1335
▁POMP	-1336
▁city	-1337
▁supp	-1338
ingman	-1339
▁PROSP	-1340
▁VOLUM	-1341
▁dream	-1342
▁looks	-1343
▁truth	-1344
▁Gentle	-1345
▁sister	-1346
▁things	-1347
▁content	-1348
▁villain	-1349
▁PROSPERO	-1350
▁VOLUMNIA	-1351
▁Servingman	-1352
ey	-1353
gu	-1354
ENV	-1355
ike	-1356
▁hu	-1357
ERCU	-1358
OLIO	-1359
UMIO	-1360
eter	-1361
vers	-1362
▁Was	-1363
▁spe	-1364
▁tem	-1365
▁BENV	-1366
▁born	-1367
▁cond	-1368
▁days	-1369
▁gods	-1370
▁sold	-1371
▁MERCU	-1372
▁break	-1373
▁GRUMIO	-1374
▁BENVOLIO	-1375
▁MERCUTIO	-1376
▁yourself	-1377
BY	-1378
IS	-1379
AUR	-1380
ars	-1381
ery	-1382
ham	-1383
hed	-1384
LAND	-1385
ague	-1386
ides	-1387
▁Com	-1388
▁bea	-1389
▁maj	-1390
▁met	-1391
▁mon	-1392
onder	-1393
▁LAUR	-1394
▁foul	-1395
▁kiss	-1396
▁late	-1397
▁soon	-1398
▁spir	-1399
centio	-1400
gether	-1401
▁POMPEY	-1402
▁return	-1403
▁England	-1404
▁beseech	-1405
▁LAURENCE	-1406
▁Therefore	-1407
eft	-1408
▁Can	-1409
▁Did	-1410
broke	-1411
enger	-1412
ester	-1413
rance	-1414
▁Hast	-1415
▁fare	-1416
▁oath	-1417
▁faith	-1418
▁horse	-1419
▁means	-1420
▁three	-1421
▁yours	-1422
▁traitor	-1423
▁Murderer	-1424
▁children	-1425
▁sovereign	-1426
LIX	-1427
anc	-1428
ere	-1429
ior	-1430
use	-1431
▁PO	-1432
balt	-1433
ient	-1434
like	-1435
vent	-1436
▁Cor	-1437
▁dru	-1438
▁sit	-1439
▁val	-1440
▁Look	-1441
▁free	-1442
▁sure	-1443
▁POLIX	-1444
▁sight	-1445
▁swear	-1446
▁tender	-1447
essenger	-1448
▁majesty	-1449
▁Farewell	-1450
▁POLIXENES	-1451
bl	-1452
by	-1453
▁Pl	-1454
▁Say	-1455
▁age	-1456
▁win	-1457
▁Clif	-1458
▁cold	-1459
▁mark	-1460
▁nurse	-1461
▁uncle	-1462
▁wound	-1463
▁GREMIO	-1464
▁bloody	-1465
▁through	-1466
▁Clifford	-1467
ID	-1468
ERD	-1469
ner	-1470
▁aw	-1471
form	-1472
idow	-1473
outh	-1474
ters	-1475
▁bat	-1476
▁car	-1477
▁sad	-1478
▁sin	-1479
ament	-1480
▁beat	-1481
▁heir	-1482
▁left	-1483
▁deser	-1484
▁found	-1485
▁gener	-1486
▁madam	-1487
▁mercy	-1488
▁point	-1489
▁Coriol	-1490
▁Tybalt	-1491
▁person	-1492
▁without	-1493
FF	-1494
ac	-1495
az	-1496
LIFF	-1497
ains	-1498
unes	-1499
usic	-1500
▁Bol	-1501
▁Cam	-1502
▁May	-1503
▁def	-1504
aking	-1505
▁Tell	-1506
▁does	-1507
▁gold	-1508
▁requ	-1509
▁save	-1510
▁yield	-1511
▁Boling	-1512
▁Should	-1513
▁common	-1514
▁desire	-1515
▁command	-1516
▁strange	-1517
▁warrant	-1518
▁Bolingbroke	-1519
LE	-1520
BER	-1521
ict	-1522
▁Lu	-1523
▁MI	-1524
THUM	-1525
earn	-1526
ours	-1527
ross	-1528
▁One	-1529
▁aff	-1530
▁woe	-1531
▁deep	-1532
▁foot	-1533
▁loss	-1534
▁seen	-1535
ertain	-1536
▁Whose	-1537
▁liege	-1538
▁pluck	-1539
BERLAND	-1540
▁strong	-1541
▁NORTHUM	-1542
▁believe	-1543
▁thyself	-1544
▁remember	-1545
▁NORTHUMBERLAND	-1546
TA	-1547
sh	-1548
ift	-1549
▁See	-1550
▁Sen	-1551
▁gre	-1552
▁rec	-1553
▁ANNE	-1554
▁dare	-1555
▁suff	-1556
▁wear	-1557
▁slain	-1558
▁trust	-1559
▁danger	-1560
▁report	-1561
▁confess	-1562
▁entreat	-1563
▁farewell	-1564
▁together	-1565
eal	-1566
ges	-1567
ial	-1568
rel	-1569
ten	-1570
▁Ah	-1571
▁Ha	-1572
▁PR	-1573
▁Sp	-1574
▁jo	-1575
INCE	-1576
ceed	-1577
ring	-1578
▁Had	-1579
▁Jul	-1580
▁cho	-1581
▁fly	-1582
▁ill	-1583
▁Mont	-1584
▁disp	-1585
▁near	-1586
▁told	-1587
▁These	-1588
▁friar	-1589
▁haste	-1590
▁while	-1591
▁PRINCE	-1592
▁charge	-1593
▁toward	-1594
▁purpose	-1595
▁service	-1596
ca	-1597
no	-1598
ua	-1599
aid	-1600
hee	-1601
hes	-1602
mer	-1603
ush	-1604
▁Ri	-1605
cept	-1606
ured	-1607
▁air	-1608
▁sil	-1609
▁betw	-1610
▁ears	-1611
▁canst	-1612
▁grant	-1613
▁learn	-1614
▁marry	-1615
▁quick	-1616
▁ready	-1617
▁ground	-1618
▁Senator	-1619
▁general	-1620
▁revenge	-1621
▁Shepherd	-1622
▁Messenger	-1623
IZ	-1624
UF	-1625
gs	-1626
up	-1627
ERS	-1628
LOR	-1629
aim	-1630
aud	-1631
ced	-1632
ils	-1633
ixt	-1634
▁Gl	-1635
▁Wh	-1636
IZEL	-1637
UFID	-1638
▁cry	-1639
▁mur	-1640
▁ord	-1641
▁tit	-1642
▁wat	-1643
ithee	-1644
ution	-1645
▁FLOR	-1646
▁duty	-1647
▁exec	-1648
▁prof	-1649
▁suit	-1650
▁AUFID	-1651
▁alone	-1652
▁heavy	-1653
▁Though	-1654
▁spirit	-1655
▁married	-1656
▁AUFIDIUS	-1657
▁FLORIZEL	-1658
▁straight	-1659
▁thoughts	-1660
ets	-1661
▁ye	-1662
illo	-1663
ined	-1664
ning	-1665
rows	-1666
▁bec	-1667
▁par	-1668
▁run	-1669
▁ter	-1670
night	-1671
▁Away	-1672
▁Some	-1673
▁Till	-1674
▁fore	-1675
▁lost	-1676
▁mock	-1677
▁past	-1678
▁says	-1679
▁times	-1680
▁Juliet	-1681
▁hearts	-1682
▁instru	-1683
▁itself	-1684
▁Against	-1685
▁brought	-1686
!'	-1687
EB	-1688
pl	-1689
TON	-1690
dom	-1691
let	-1692
sue	-1693
ump	-1694
▁Pr	-1695
enty	-1696
oman	-1697
ones	-1698
▁SEB	-1699
▁ask	-1700
▁vis	-1701
▁woo	-1702
audio	-1703
riage	-1704
▁Like	-1705
▁hard	-1706
▁hell	-1707
▁poss	-1708
▁trib	-1709
ASTIAN	-1710
▁enemy	-1711
▁guilt	-1712
▁hours	-1713
▁resol	-1714
▁watch	-1715
▁women	-1716
▁Camillo	-1717
▁Claudio	-1718
▁SEBASTIAN	-1719
bs	-1720
oop	-1721
ouc	-1722
rem	-1723
ues	-1724
unt	-1725
▁CA	-1726
▁dr	-1727
ERLE	-1728
adam	-1729
inks	-1730
▁AUM	-1731
▁fur	-1732
umber	-1733
▁Pray	-1734
▁harm	-1735
▁lead	-1736
▁lose	-1737
▁quar	-1738
▁tale	-1739
▁Glouc	-1740
▁bound	-1741
▁knows	-1742
▁youth	-1743
▁beauty	-1744
▁worthy	-1745
▁AUMERLE	-1746
▁Hastings	-1747
▁something	-1748
of	-1749
sc	-1750
vo	-1751
xt	-1752
ION	-1753
fid	-1754
olk	-1755
aunt	-1756
osom	-1757
▁Bec	-1758
▁Wel	-1759
▁del	-1760
ments	-1761
▁Sign	-1762
▁deli	-1763
▁forb	-1764
▁open	-1765
▁post	-1766
▁seek	-1767
▁wast	-1768
▁work	-1769
▁Madam	-1770
▁bosom	-1771
▁curse	-1772
▁short	-1773
▁speed	-1774
▁title	-1775
▁touch	-1776
▁France	-1777
▁loving	-1778
▁streng	-1779
▁fearful	-1780
▁heavens	-1781
▁Montague	-1782
▁marriage	-1783
▁gentlemen	-1784
AL	-1785
OP	-1786
Tw	-1787
AUD	-1788
ina	-1789
rah	-1790
▁wa	-1791
cess	-1792
ench	-1793
ship	-1794
▁unt	-1795
AUDIO	-1796
ortal	-1797
▁deed	-1798
▁desp	-1799
▁dist	-1800
▁each	-1801
▁fast	-1802
▁sing	-1803
▁devil	-1804
▁didst	-1805
▁merry	-1806
▁widow	-1807
fection	-1808
▁Master	-1809
▁attend	-1810
▁murder	-1811
▁strike	-1812
▁virtue	-1813
▁withal	-1814
▁CLAUDIO	-1815
▁Signior	-1816
▁counsel	-1817
▁Gentleman	-1818
▁Gloucester	-1819
alm	-1820
apt	-1821
hen	-1822
ols	-1823
oof	-1824
▁Au	-1825
▁Bo	-1826
▁ag	-1827
▁ty	-1828
▁ve	-1829
CIUS	-1830
ched	-1831
folk	-1832
rest	-1833
vour	-1834
▁Pom	-1835
▁dam	-1836
▁div	-1837
▁inf	-1838
▁min	-1839
▁Thus	-1840
▁chee	-1841
▁dish	-1842
▁forg	-1843
▁grie	-1844
▁knew	-1845
▁prep	-1846
▁read	-1847
▁sake	-1848
▁field	-1849
▁known	-1850
▁battle	-1851
▁behold	-1852
▁coming	-1853
▁forget	-1854
▁honest	-1855
▁stands	-1856
▁voices	-1857
▁MARCIUS	-1858
▁Norfolk	-1859
▁company	-1860
▁highness	-1861
OW	-1862
bly	-1863
rew	-1864
urp	-1865
▁JO	-1866
anus	-1867
ging	-1868
ives	-1869
▁HER	-1870
▁bit	-1871
▁bur	-1872
▁enc	-1873
▁sat	-1874
▁ten	-1875
MIONE	-1876
TONIO	-1877
ished	-1878
▁Lanc	-1879
▁Vols	-1880
▁feel	-1881
▁four	-1882
▁half	-1883
▁morn	-1884
▁sign	-1885
▁took	-1886
▁wret	-1887
fidius	-1888
▁begin	-1889
▁cheer	-1890
▁close	-1891
▁cloud	-1892
▁enter	-1893
▁mouth	-1894
▁order	-1895
▁serve	-1896
ethinks	-1897
▁either	-1898
▁suffer	-1899
▁thanks	-1900
▁wonder	-1901
▁ANTONIO	-1902
▁enemies	-1903
▁justice	-1904
▁Aufidius	-1905
▁HERMIONE	-1906
▁pleasure	-1907
▁Lancaster	-1908
HN	-1909
ZA	-1910
ew	-1911
op	-1912
DEL	-1913
eep	-1914
els	-1915
▁Ar	-1916
▁Ch	-1917
▁Ne	-1918
▁Sw	-1919
▁ac	-1920
ONZA	-1921
dden	-1922
etch	-1923
hood	-1924
ible	-1925
iers	-1926
ions	-1927
orge	-1928
ting	-1929
▁Pet	-1930
▁fit	-1931
▁hot	-1932
▁inc	-1933
▁red	-1934
▁whi	-1935
DELLO	-1936
▁BION	-1937
▁Bian	-1938
▁Call	-1939
▁JOHN	-1940
▁LORD	-1941
▁Rich	-1942
▁Tran	-1943
▁bold	-1944
▁dire	-1945
▁draw	-1946
▁same	-1947
▁wall	-1948
▁wise	-1949
ONZALO	-1950
ceived	-1951
ingham	-1952
▁along	-1953
▁black	-1954
▁breat	-1955
▁gates	-1956
▁twenty	-1957
▁GONZALO	-1958
▁consent	-1959
▁Hereford	-1960
▁Lucentio	-1961
▁strength	-1962
▁BIONDELLO	-1963
▁themselves	-1964
kes	-1965
ses	-1966
▁cr	-1967
ally	-1968
most	-1969
ract	-1970
▁Bes	-1971
▁Cap	-1972
▁abs	-1973
▁cut	-1974
▁dro	-1975
▁ext	-1976
▁foe	-1977
▁jud	-1978
▁pie	-1979
▁reg	-1980
▁wed	-1981
TESBY	-1982
▁Buck	-1983
▁Lady	-1984
▁case	-1985
▁grow	-1986
▁move	-1987
▁pale	-1988
▁pret	-1989
▁rich	-1990
▁sick	-1991
▁side	-1992
▁Tower	-1993
▁bride	-1994
▁brief	-1995
▁inter	-1996
▁issue	-1997
▁music	-1998
▁plain	-1999
▁seems	-2000
▁spoke	-2001
▁Bianca	-2002
▁become	-2003
▁having	-2004
▁poison	-2005
▁speech	-2006
▁thence	-2007
▁CATESBY	-2008
▁Welcome	-2009
▁servant	-2010
▁Buckingham	-2011
▁Coriolanus	-2012
AS	-2013
pes	-2014
▁Re	-2015
▁du	-2016
arry	-2017
chan	-2018
east	-2019
oose	-2020
ures	-2021
▁act	-2022
▁bad	-2023
▁cor	-2024
▁exp	-2025
▁gar	-2026
▁mal	-2027
▁ven	-2028
oward	-2029
▁Make	-2030
▁Such	-2031
▁deny	-2032
▁gave	-2033
▁CLIFF	-2034
▁Marry	-2035
▁Petru	-2036
▁brave	-2037
▁given	-2038
▁knock	-2039
▁liber	-2040
▁loves	-2041
▁souls	-2042
▁worse	-2043
▁Before	-2044
▁course	-2045
▁sudden	-2046
▁between	-2047
▁deliver	-2048
▁CLIFFORD	-2049
DA	-2050
NT	-2051
awd	-2052
cks	-2053
hem	-2054
irm	-2055
isf	-2056
lly	-2057
lst	-2058
oun	-2059
▁Ge	-2060
▁sk	-2061
chio	-2062
mber	-2063
mond	-2064
osed	-2065
over	-2066
race	-2067
ries	-2068
▁bar	-2069
▁bow	-2070
▁buy	-2071
▁eat	-2072
▁gro	-2073
▁und	-2074
▁wis	-2075
RANDA	-2076
▁Bapt	-2077
▁dark	-2078
▁goes	-2079
▁jest	-2080
▁next	-2081
▁self	-2082
▁soft	-2083
▁trou	-2084
▁weak	-2085
ainted	-2086
▁cross	-2087
▁drink	-2088
▁feast	-2089
▁George	-2090
▁Tranio	-2091
▁appear	-2092
▁consul	-2093
▁mortal	-2094
▁Baptist	-2095
▁MIRANDA	-2096
▁further	-2097
▁witness	-2098
▁Richmond	-2099
▁Petruchio	-2100
ls	-2101
bit	-2102
emn	-2103
ern	-2104
ona	-2105
▁Ab	-2106
▁Ca	-2107
▁De	-2108
▁EL	-2109
▁ev	-2110
▁pu	-2111
▁ta	-2112
cher	-2113
each	-2114
fter	-2115
icer	-2116
irth	-2117
lish	-2118
twas	-2119
▁bro	-2120
▁col	-2121
▁emb	-2122
▁lad	-2123
ander	-2124
cient	-2125
owers	-2126
twere	-2127
▁burn	-2128
▁cast	-2129
▁sons	-2130
▁Being	-2131
▁Their	-2132
▁bless	-2133
▁dread	-2134
▁Unless	-2135
▁office	-2136
▁secret	-2137
▁throne	-2138
▁ancient	-2139
▁neither	-2140
▁promise	-2141
▁quarrel	-2142
▁Baptista	-2143
IV	-2144
ip	-2145
po	-2146
su	-2147
ILI	-2148
bed	-2149
▁Jo	-2150
AUNT	-2151
ILIA	-2152
alth	-2153
aris	-2154
ends	-2155
host	-2156
iant	-2157
ires	-2158
used	-2159
▁RIV	-2160
▁ang	-2161
▁ble	-2162
▁lab	-2163
▁pay	-2164
▁sum	-2165
▁vow	-2166
antag	-2167
claim	-2168
ondon	-2169
otion	-2170
stand	-2171
▁GREY	-2172
▁Must	-2173
▁Whom	-2174
▁lips	-2175
▁priv	-2176
▁prop	-2177
▁rage	-2178
▁seat	-2179
▁sigh	-2180
▁vict	-2181
antage	-2182
asters	-2183
▁GAUNT	-2184
▁North	-2185
▁Since	-2186
▁appro	-2187
▁beast	-2188
▁compl	-2189
▁frown	-2190
▁offer	-2191
▁London	-2192
▁RIVERS	-2193
▁breast	-2194
▁change	-2195
▁satisf	-2196
▁triump	-2197
▁hearing	-2198
▁morning	-2199
▁prepare	-2200
▁prithee	-2201
umberland	-2202
▁princely	-2203
▁soldiers	-2204
▁tribunes	-2205
▁dangerous	-2206
▁Northumberland	-2207
be	-2208
ne	-2209
nk	-2210
so	-2211
arl	-2212
gar	-2213
pey	-2214
▁ur	-2215
aret	-2216
empt	-2217
feit	-2218
ourn	-2219
rist	-2220
ught	-2221
uous	-2222
urch	-2223
vest	-2224
▁Ere	-2225
▁Yes	-2226
▁est	-2227
▁mid	-2228
▁pit	-2229
▁reb	-2230
garet	-2231
itted	-2232
ready	-2233
right	-2234
▁Both	-2235
▁Hold	-2236
▁Keep	-2237
▁Most	-2238
▁bawd	-2239
▁book	-2240
▁fier	-2241
▁inno	-2242
▁kins	-2243
▁lack	-2244
▁pain	-2245
▁prot	-2246
▁scar	-2247
▁stir	-2248
▁succ	-2249
▁thri	-2250
▁town	-2251
▁wars	-2252
perate	-2253
▁Paris	-2254
▁creat	-2255
▁deeds	-2256
▁heads	-2257
▁sworn	-2258
▁voice	-2259
▁water	-2260
▁Pompey	-2261
▁bitter	-2262
▁defend	-2263
▁dishon	-2264
▁wounds	-2265
▁Because	-2266
▁chamber	-2267
▁flatter	-2268
▁request	-2269
▁respect	-2270
▁thither	-2271
▁treason	-2272
▁valiant	-2273
▁worship	-2274
▁patience	-2275
▁presence	-2276
▁presently	-2277
RG	-2278
UR	-2279
cy	-2280
SON	-2281
gue	-2282
iff	-2283
▁Ox	-2284
▁ay	-2285
aked	-2286
ents	-2287
ided	-2288
ines	-2289
mand	-2290
nown	-2291
orth	-2292
▁adm	-2293
▁cap	-2294
▁enj	-2295
▁ign	-2296
▁med	-2297
▁pen	-2298
▁sho	-2299
IANCA	-2300
hemia	-2301
inger	-2302
ledge	-2303
ustom	-2304
▁Alas	-2305
▁Lest	-2306
▁VIRG	-2307
▁stru	-2308
▁wert	-2309
▁fetch	-2310
▁forsw	-2311
▁kings	-2312
▁slave	-2313
▁small	-2314
▁throw	-2315
▁visit	-2316
▁BIANCA	-2317
▁Oxford	-2318
▁encoun	-2319
▁forbid	-2320
▁whence	-2321
▁Bohemia	-2322
▁already	-2323
▁greater	-2324
▁prayers	-2325
▁proceed	-2326
▁quickly	-2327
▁Margaret	-2328
▁VIRGILIA	-2329
▁deserved	-2330
▁sentence	-2331
ITA	-2332
als	-2333
ats	-2334
esh	-2335
ked	-2336
ots	-2337
ror	-2338
vol	-2339
▁Ad	-2340
▁Tw	-2341
▁da	-2342
▁em	-2343
aken	-2344
hind	-2345
ired	-2346
rous	-2347
rust	-2348
ying	-2349
▁Con	-2350
▁Gre	-2351
▁cle	-2352
▁fra	-2353
▁got	-2354
▁ins	-2355
▁lam	-2356
▁lim	-2357
edant	-2358
eness	-2359
isure	-2360
▁Doth	-2361
▁PERD	-2362
▁blow	-2363
▁fond	-2364
▁gall	-2365
▁list	-2366
▁moon	-2367
▁obey	-2368
▁Peace	-2369
▁Roman	-2370
▁Speak	-2371
▁Stand	-2372
▁Sweet	-2373
▁angry	-2374
▁conqu	-2375
▁flesh	-2376
▁often	-2377
▁scorn	-2378
▁swift	-2379
▁usurp	-2380
▁Christ	-2381
▁coward	-2382
▁depart	-2383
▁favour	-2384
▁guilty	-2385
▁lament	-2386
▁second	-2387
▁PERDITA	-2388
▁because	-2389
▁forward	-2390
▁leisure	-2391
▁patient	-2392
▁slaughter	-2393
AT	-2394
to	-2395
ts	-2396
ze	-2397
▁3	-2398
arn	-2399
ley	-2400
raw	-2401
rum	-2402
zen	-2403
▁Am	-2404
▁Br	-2405
▁TY	-2406
IANA	-2407
adua	-2408
ding	-2409
king	-2410
oint	-2411
then	-2412
vern	-2413
▁Whi	-2414
▁bab	-2415
▁ben	-2416
▁dog	-2417
▁dry	-2418
▁fie	-2419
▁hur	-2420
▁ind	-2421
▁nay	-2422
▁pet	-2423
▁sur	-2424
▁unw	-2425
essed	-2426
inius	-2427
ities	-2428
▁Hark	-2429
▁Isab	-2430
▁base	-2431
▁damn	-2432
▁doom	-2433
▁form	-2434
▁fres	-2435
▁hide	-2436
▁neck	-2437
▁prin	-2438
▁safe	-2439
▁shad	-2440
▁sole	-2441
▁walk	-2442
▁wash	-2443
▁writ	-2444
▁year	-2445
▁Padua	-2446
▁Watch	-2447
▁While	-2448
▁aside	-2449
▁blows	-2450
▁hadst	-2451
▁stood	-2452
▁trump	-2453
antagen	-2454
osition	-2455
▁action	-2456
▁faults	-2457
▁golden	-2458
▁mighty	-2459
▁English	-2460
▁MARIANA	-2461
▁perform	-2462
▁possess	-2463
▁soldier	-2464
▁weeping	-2465
▁wouldst	-2466
▁subjects	-2467
▁Plantagen	-2468
▁desperate	-2469
▁encounter	-2470
▁execution	-2471
▁yourselves	-2472
BOW	-2473
GUE	-2474
asy	-2475
aul	-2476
dge	-2477
ler	-2478
ura	-2479
▁Ex	-2480
▁ap	-2481
▁ef	-2482
▁id	-2483
▁ow	-2484
▁ut	-2485
ONTA	-2486
iles	-2487
omes	-2488
oney	-2489
read	-2490
ully	-2491
▁Per	-2492
▁Too	-2493
▁fam	-2494
▁few	-2495
▁hap	-2496
▁lan	-2497
▁len	-2498
▁opp	-2499
▁rob	-2500
▁sac	-2501
▁tor	-2502
▁unk	-2503
▁won	-2504
chool	-2505
ensio	-2506
ingly	-2507
ndred	-2508
rumio	-2509
▁Earl	-2510
▁Hort	-2511
▁Mist	-2512
▁fill	-2513
▁glad	-2514
▁knee	-2515
▁lust	-2516
▁note	-2517
▁stor	-2518
▁tear	-2519
▁temp	-2520
▁vain	-2521
astard	-2522
icious	-2523
▁ELBOW	-2524
▁MONTA	-2525
▁Saint	-2526
▁Think	-2527
▁bones	-2528
▁enjoy	-2529
▁march	-2530
▁match	-2531
▁quiet	-2532
▁reign	-2533
▁shows	-2534
▁Grumio	-2535
▁Sirrah	-2536
▁almost	-2537
▁behind	-2538
▁chance	-2539
▁church	-2540
▁effect	-2541
▁goodly	-2542
▁labour	-2543
▁speaks	-2544
▁threat	-2545
▁breathe	-2546
▁condemn	-2547
▁hundred	-2548
▁kingdom	-2549
▁letters	-2550
▁liberty	-2551
▁offence	-2552
▁success	-2553
▁victory	-2554
▁MONTAGUE	-2555
▁Hortensio	-2556
▁entertain	-2557
▁knowledge	-2558
▁Plantagenet	-2559
!--	-2560
:--	-2561
ads	-2562
dle	-2563
rim	-2564
umb	-2565
vel	-2566
▁ST	-2567
▁ga	-2568
ames	-2569
ceit	-2570
erle	-2571
▁Bid	-2572
▁DOR	-2573
▁Hea	-2574
▁Kat	-2575
▁Off	-2576
▁Yea	-2577
▁big	-2578
▁deg	-2579
▁eld	-2580
▁low	-2581
▁nob	-2582
▁occ	-2583
▁ran	-2584
▁shi	-2585
▁sus	-2586
▁unc	-2587
▁uns	-2588
force	-2589
ility	-2590
uthor	-2591
▁Cons	-2592
▁Merc	-2593
▁Paul	-2594
▁Stay	-2595
▁Unto	-2596
▁dest	-2597
▁laid	-2598
▁slew	-2599
▁sort	-2600
▁sour	-2601
▁tent	-2602
▁viol	-2603
▁warm	-2604
▁wild	-2605
cience	-2606
▁Gaunt	-2607
▁PETER	-2608
▁birth	-2609
▁broke	-2610
▁lands	-2611
▁least	-2612
▁needs	-2613
▁noise	-2614
▁saint	-2615
▁venge	-2616
▁worst	-2617
▁Within	-2618
▁author	-2619
▁awhile	-2620
▁clouds	-2621
▁contin	-2622
▁lawful	-2623
▁letter	-2624
▁living	-2625
▁offend	-2626
▁others	-2627
▁pretty	-2628
▁remain	-2629
▁revere	-2630
▁struck	-2631
▁certain	-2632
▁despair	-2633
▁herself	-2634
▁honours	-2635
▁masters	-2636
▁measure	-2637
▁towards	-2638
▁trouble	-2639
▁Citizens	-2640
▁Watchman	-2641
▁prisoner	-2642
▁virtuous	-2643
▁affection	-2644
▁dishonour	-2645
▁ourselves	-2646
▁banishment	-2647
▁understand	-2648
LY	-2649
gg	-2650
hn	-2651
ash	-2652
eem	-2653
ety	-2654
ieu	-2655
now	-2656
oss	-2657
rue	-2658
uff	-2659
urs	-2660
vey	-2661
▁EX	-2662
▁En	-2663
▁Fa	-2664
▁Me	-2665
augh	-2666
born	-2667
cted	-2668
ider	-2669
iest	-2670
ighb	-2671
iled	-2672
rent	-2673
ster	-2674
ulet	-2675
ural	-2676
▁Ant	-2677
▁Aum	-2678
▁Bel	-2679
▁Out	-2680
▁SLY	-2681
▁Ver	-2682
▁Vin	-2683
▁exc	-2684
▁fru	-2685
▁inj	-2686
▁sto	-2687
▁unf	-2688
asion	-2689
ators	-2690
lease	-2691
stant	-2692
▁Hear	-2693
▁John	-2694
▁abro	-2695
▁fine	-2696
▁fled	-2697
▁held	-2698
▁join	-2699
▁obed	-2700
▁prov	-2701
▁root	-2702
▁shed	-2703
▁stud	-2704
estion	-2705
harina	-2706
ointed	-2707
▁among	-2708
▁bears	-2709
▁crave	-2710
▁doing	-2711
▁drunk	-2712
▁going	-2713
▁grand	-2714
▁guard	-2715
▁ignor	-2716
▁lived	-2717
▁loved	-2718
▁miser	-2719
▁piece	-2720
▁plant	-2721
▁pride	-2722
▁sense	-2723
▁stars	-2724
▁steel	-2725
▁stone	-2726
▁Either	-2727
▁Pardon	-2728
▁Pedant	-2729
▁bright	-2730
▁custom	-2731
▁forgot	-2732
▁govern	-2733
▁longer	-2734
▁malice	-2735
▁manner	-2736
▁winter	-2737
▁Aumerle	-2738
▁Capulet	-2739
▁counter	-2740
▁kinsman	-2741
▁triumph	-2742
▁Cominius	-2743
▁dispatch	-2744
▁kindness	-2745
▁methinks	-2746
▁shepherd	-2747
▁Katharina	-2748
▁Vincentio	-2749
:'	-2750
;'	-2751
XI	-2752
iv	-2753
ny	-2754
TIS	-2755
WIS	-2756
awn	-2757
ban	-2758
ief	-2759
irl	-2760
ize	-2761
med	-2762
ony	-2763
oor	-2764
roy	-2765
set	-2766
ude	-2767
▁Bl	-2768
▁Fl	-2769
▁XI	-2770
acle	-2771
bury	-2772
ease	-2773
ever	-2774
iful	-2775
ited	-2776
mble	-2777
rupt	-2778
scal	-2779
sper	-2780
ular	-2781
vail	-2782
▁CUR	-2783
▁Put	-2784
▁din	-2785
▁mod	-2786
▁pun	-2787
▁ref	-2788
▁rid	-2789
▁thu	-2790
antua	-2791
aring	-2792
fully	-2793
ining	-2794
orous	-2795
orthy	-2796
ounce	-2797
rence	-2798
▁Mine	-2799
▁Wilt	-2800
▁army	-2801
▁beha	-2802
▁bend	-2803
▁bids	-2804
▁exce	-2805
▁fart	-2806
▁five	-2807
▁hair	-2808
▁imag	-2809
▁lest	-2810
▁ours	-2811
ealous	-2812
▁Caius	-2813
▁Could	-2814
▁LEWIS	-2815
▁above	-2816
▁calls	-2817
▁dwell	-2818
▁early	-2819
▁faint	-2820
▁force	-2821
▁fresh	-2822
▁greet	-2823
▁guest	-2824
▁knees	-2825
▁liest	-2826
▁moved	-2827
▁party	-2828
▁pleas	-2829
▁proof	-2830
▁quoth	-2831
▁rough	-2832
▁sheep	-2833
▁sport	-2834
▁stain	-2835
▁truly	-2836
▁walls	-2837
itizens	-2838
▁CURTIS	-2839
▁Isabel	-2840
▁Keeper	-2841
▁Mantua	-2842
▁cheeks	-2843
▁demand	-2844
▁deputy	-2845
▁ladies	-2846
▁morrow	-2847
▁scarce	-2848
▁swords	-2849
▁tyrant	-2850
▁valour	-2851
▁flowers	-2852
▁foolish	-2853
▁kindred	-2854
▁precious	-2855
▁promised	-2856
BR	-2857
ART	-2858
ATC	-2859
BRA	-2860
HOP	-2861
LEY	-2862
ONE	-2863
STR	-2864
amp	-2865
mit	-2866
pir	-2867
ppy	-2868
she	-2869
ual	-2870
ume	-2871
▁OV	-2872
▁Sc	-2873
ARIS	-2874
RIEL	-2875
Twas	-2876
aves	-2877
ered	-2878
ords	-2879
orry	-2880
reed	-2881
rees	-2882
vish	-2883
▁Art	-2884
▁Dis	-2885
▁Men	-2886
▁env	-2887
▁fat	-2888
▁mut	-2889
▁pal	-2890
▁pra	-2891
▁rot	-2892
▁saf	-2893
▁try	-2894
ISHOP	-2895
acher	-2896
arted	-2897
ating	-2898
eterm	-2899
house	-2900
iance	-2901
ounds	-2902
▁Barn	-2903
▁Fear	-2904
▁LART	-2905
▁Love	-2906
▁Made	-2907
▁RATC	-2908
▁capt	-2909
▁cred	-2910
▁deal	-2911
▁died	-2912
▁door	-2913
▁dull	-2914
▁easy	-2915
▁evil	-2916
▁fain	-2917
▁hung	-2918
▁kept	-2919
▁mild	-2920
▁rise	-2921
▁thro	-2922
▁woes	-2923
ERDONE	-2924
STRESS	-2925
atesby	-2926
▁ARIEL	-2927
▁Alack	-2928
▁Lords	-2929
▁PARIS	-2930
▁Peter	-2931
▁Under	-2932
▁alive	-2933
▁benef	-2934
▁brows	-2935
▁cares	-2936
▁chast	-2937
▁cried	-2938
▁fiery	-2939
▁fruit	-2940
▁ghost	-2941
▁glory	-2942
▁kneel	-2943
▁laugh	-2944
▁mayst	-2945
▁month	-2946
▁mount	-2947
▁quite	-2948
▁spent	-2949
▁steal	-2950
▁trial	-2951
▁Heaven	-2952
▁abroad	-2953
▁appare	-2954
▁choose	-2955
▁determ	-2956
▁dreams	-2957
▁finger	-2958
▁fought	-2959
▁health	-2960
▁humour	-2961
▁import	-2962
▁neighb	-2963
▁school	-2964
▁wisdom	-2965
▁wretch	-2966
▁Catesby	-2967
▁Corioli	-2968
▁LARTIUS	-2969
▁bastard	-2970
▁officer	-2971
▁prevent	-2972
▁profess	-2973
▁thereof	-2974
▁thunder	-2975
▁whether	-2976
▁MISTRESS	-2977
▁OVERDONE	-2978
▁RATCLIFF	-2979
▁brothers	-2980
▁question	-2981
▁condition	-2982
▁vengeance	-2983
▁wherefore	-2984
▁conscience	-2985
'?	-2986
ub	-2987
AMP	-2988
act	-2989
ang	-2990
den	-2991
iew	-2992
llo	-2993
loy	-2994
owb	-2995
▁AE	-2996
▁ed	-2997
aced	-2998
aper	-2999
ated	-3000
azed	-3001
enes	-3002
hire	-3003
ilia	-3004
ldom	-3005
ners	-3006
rici	-3007
rift	-3008
shal	-3009
utio	-3010
vell	-3011
▁Bet	-3012
▁Des	-3013
▁Fri	-3014
▁Res	-3015
▁Tut	-3016
▁aid	-3017
▁bef	-3018
▁cru	-3019
▁god	-3020
▁hol	-3021
▁oft	-3022
▁rel	-3023
▁wre	-3024
eless	-3025
ident	-3026
rench	-3027
twixt	-3028
▁Jove	-3029
▁Mowb	-3030
▁Poor	-3031
▁SAMP	-3032
▁Show	-3033
▁Turn	-3034
▁acqu	-3035
▁anon	-3036
▁bark	-3037
▁boot	-3038
▁empt	-3039
▁envy	-3040
▁gown	-3041
▁leng	-3042
▁vice	-3043
▁view	-3044
▁vile	-3045
▁wail	-3046
▁womb	-3047
ations	-3048
idings	-3049
orious	-3050
unning	-3051
▁Death	-3052
▁Faith	-3053
▁Harry	-3054
▁blest	-3055
▁carry	-3056
▁cheek	-3057
▁chief	-3058
▁concl	-3059
▁condu	-3060
▁contr	-3061
▁cover	-3062
▁drown	-3063
▁faire	-3064
▁guess	-3065
▁joint	-3066
▁knave	-3067
▁langu	-3068
▁pains	-3069
▁plead	-3070
▁remed	-3071
▁seven	-3072
▁sever	-3073
▁shrew	-3074
▁subst	-3075
▁teach	-3076
▁twice	-3077
▁Prince	-3078
▁beggar	-3079
▁broken	-3080
▁buried	-3081
▁choice	-3082
▁convey	-3083
▁double	-3084
▁flower	-3085
▁former	-3086
▁necess	-3087
▁priest	-3088
▁sacred	-3089
▁stones	-3090
▁summer	-3091
▁wrongs	-3092
▁Besides	-3093
▁Mowbray	-3094
▁SAMPSON	-3095
▁blessed	-3096
▁changed	-3097
▁charity	-3098
▁honesty	-3099
▁jealous	-3100
▁reasons	-3101
▁therein	-3102
▁vantage	-3103
▁Mercutio	-3104
▁citizens	-3105
▁innocent	-3106
▁lordship	-3107
▁received	-3108
▁treacher	-3109
▁wretched	-3110
▁satisfied	-3111
lp	-3112
mn	-3113
sp	-3114
GOR	-3115
HOM	-3116
ask	-3117
aze	-3118
cha	-3119
hys	-3120
law	-3121
oke	-3122
ope	-3123
ott	-3124
pin	-3125
ued	-3126
GORY	-3127
haps	-3128
here	-3129
ites	-3130
leep	-3131
oard	-3132
rand	-3133
utes	-3134
ways	-3135
with	-3136
▁Apo	-3137
▁Boy	-3138
▁Rut	-3139
▁SOM	-3140
▁Sic	-3141
▁add	-3142
▁amb	-3143
▁cir	-3144
▁cre	-3145
▁dew	-3146
▁dur	-3147
▁ele	-3148
▁lar	-3149
▁ver	-3150
ANLEY	-3151
ERSET	-3152
HOMAS	-3153
ailor	-3154
eding	-3155
hysic	-3156
icked	-3157
place	-3158
woman	-3159
▁Dost	-3160
▁Into	-3161
▁Once	-3162
▁True	-3163
▁bite	-3164
▁cell	-3165
▁corn	-3166
▁disd	-3167
▁disg	-3168
▁drop	-3169
▁dust	-3170
▁ease	-3171
▁firm	-3172
▁foll	-3173
▁fury	-3174
▁idle	-3175
▁judg	-3176
▁pack	-3177
▁prey	-3178
▁quit	-3179
▁rude	-3180
▁ruin	-3181
▁sail	-3182
▁seal	-3183
▁shar	-3184
▁stat	-3185
ardine	-3186
change	-3187
ontent	-3188
othing	-3189
▁After	-3190
▁Hence	-3191
▁Three	-3192
▁allow	-3193
▁anger	-3194
▁blame	-3195
▁blind	-3196
▁claim	-3197
▁corse	-3198
▁cruel	-3199
▁dance	-3200
▁glass	-3201
▁gross	-3202
▁judge	-3203
▁keeps	-3204
▁loath	-3205
▁maids	-3206
▁shake	-3207
▁shore	-3208
▁smile	-3209
▁sorry	-3210
▁spake	-3211
▁stoop	-3212
▁storm	-3213
▁stuff	-3214
▁tread	-3215
▁weeds	-3216
▁wench	-3217
▁white	-3218
▁Please	-3219
▁THOMAS	-3220
▁Verona	-3221
▁Whilst	-3222
▁access	-3223
▁affair	-3224
▁dinner	-3225
▁divine	-3226
▁excuse	-3227
▁extrem	-3228
▁infect	-3229
▁intend	-3230
▁knight	-3231
▁motion	-3232
▁plague	-3233
▁prayer	-3234
▁senate	-3235
▁spring	-3236
▁undone	-3237
▁wanton	-3238
▁whilst	-3239
▁wicked	-3240
▁GREGORY	-3241
▁Paulina	-3242
▁Prithee	-3243
▁Rutland	-3244
▁STANLEY	-3245
▁Volsces	-3246
▁absence	-3247
▁butcher	-3248
▁conquer	-3249
▁delight	-3250
▁express	-3251
▁meaning	-3252
▁private	-3253
▁prosper	-3254
▁slander	-3255
▁Methinks	-3256
▁Mistress	-3257
▁SOMERSET	-3258
▁deceived	-3259
▁proclaim	-3260
▁traitors	-3261
▁authority	-3262
▁Barnardine	-3263
BU	-3264
XF	-3265
GON	-3266
MON	-3267
gle	-3268
ify	-3269
isa	-3270
omp	-3271
ung	-3272
▁Co	-3273
▁Le	-3274
▁ba	-3275
▁er	-3276
▁es	-3277
BURY	-3278
ERBY	-3279
ETER	-3280
MOND	-3281
aded	-3282
eeth	-3283
eous	-3284
ians	-3285
ione	-3286
ises	-3287
lock	-3288
long	-3289
omas	-3290
omer	-3291
othe	-3292
outs	-3293
rate	-3294
▁Fie	-3295
▁OXF	-3296
▁Pol	-3297
▁Two	-3298
▁bew	-3299
▁eag	-3300
▁emp	-3301
▁lod	-3302
▁pil	-3303
▁sim	-3304
▁sup	-3305
▁top	-3306
▁yea	-3307
GONUS	-3308
allow	-3309
anley	-3310
arden	-3311
aries	-3312
ently	-3313
iment	-3314
inous	-3315
loved	-3316
mione	-3317
ounty	-3318
remio	-3319
▁ANTI	-3320
▁Pisa	-3321
▁Very	-3322
▁ange	-3323
▁arri	-3324
▁ball	-3325
▁brow	-3326
▁flat	-3327
▁foes	-3328
▁girl	-3329
▁heav	-3330
▁incl	-3331
▁publ	-3332
▁room	-3333
▁sens	-3334
▁ship	-3335
▁shut	-3336
▁sits	-3337
▁stab	-3338
▁star	-3339
▁stop	-3340
▁tort	-3341
▁tune	-3342
▁ways	-3343
▁wits	-3344
▁wont	-3345
edious	-3346
enance	-3347
itting	-3348
pinion	-3349
though	-3350
▁DERBY	-3351
▁Friar	-3352
▁Music	-3353
▁Never	-3354
▁belly	-3355
▁cries	-3356
▁empty	-3357
▁grown	-3358
▁loyal	-3359
▁money	-3360
▁pract	-3361
▁pursu	-3362
▁spend	-3363
▁stock	-3364
▁tempt	-3365
▁trans	-3366
▁troth	-3367
▁tyran	-3368
▁utter	-3369
▁wives	-3370
▁wrath	-3371
onounce	-3372
▁Apollo	-3373
▁BISHOP	-3374
▁Cousin	-3375
▁EXETER	-3376
▁Gremio	-3377
▁OXFORD	-3378
▁Thomas	-3379
▁accept	-3380
▁assist	-3381
▁deadly	-3382
▁devise	-3383
▁excell	-3384
▁garden	-3385
▁hollow	-3386
▁humble	-3387
▁inform	-3388
▁intent	-3389
▁market	-3390
▁nobles	-3391
▁oracle	-3392
▁renown	-3393
▁resign	-3394
▁safety	-3395
▁sirrah	-3396
▁supper	-3397
▁terror	-3398
▁throat	-3399
▁undert	-3400
▁weight	-3401
▁wither	-3402
aughters	-3403
ethought	-3404
▁Brother	-3405
▁Stanley	-3406
▁Wherein	-3407
▁Without	-3408
▁colours	-3409
▁cunning	-3410
▁deserve	-3411
▁embrace	-3412
▁envious	-3413
▁farther	-3414
▁fellows	-3415
▁needful	-3416
▁outward	-3417
▁painted	-3418
▁prevail	-3419
▁protect	-3420
▁shortly	-3421
▁silence	-3422
▁tidings	-3423
▁tongues	-3424
▁whither	-3425
▁Hermione	-3426
▁RICHMOND	-3427
▁creature	-3428
▁dreadful	-3429
▁goodness	-3430
▁judgment	-3431
▁occasion	-3432
▁perceive	-3433
▁petition	-3434
▁practise	-3435
▁prepared	-3436
▁sometime	-3437
▁ANTIGONUS	-3438
▁miserable	-3439
▁honourable	-3440
?'	-3441
AK	-3442
eg	-3443
ALT	-3444
AND	-3445
afe	-3446
bow	-3447
cho	-3448
cio	-3449
esy	-3450
hop	-3451
nat	-3452
nes	-3453
ron	-3454
und	-3455
uri	-3456
▁ir	-3457
AKEN	-3458
ALTH	-3459
ASAR	-3460
BALT	-3461
BRAY	-3462
LIUS	-3463
amed	-3464
ands	-3465
arch	-3466
ards	-3467
ared	-3468
aste	-3469
cing	-3470
elve	-3471
erve	-3472
ewis	-3473
hant	-3474
iffe	-3475
noon	-3476
oler	-3477
oved	-3478
sing	-3479
unts	-3480
yond	-3481
▁AEd	-3482
▁Has	-3483
▁Lea	-3484
▁MOW	-3485
▁Ros	-3486
▁Set	-3487
▁Sha	-3488
▁Unt	-3489
▁ado	-3490
▁aim	-3491
▁avo	-3492
▁bas	-3493
▁bud	-3494
▁dec	-3495
▁due	-3496
▁fle	-3497
▁fro	-3498
▁hid	-3499
▁odd	-3500
▁pin	-3501
▁shr	-3502
▁six	-3503
▁smo	-3504
pping	-3505
rison	-3506
ursed	-3507
usion	-3508
▁Amen	-3509
▁Bona	-3510
▁Four	-3511
▁bond	-3512
▁circ	-3513
▁cure	-3514
▁dies	-3515
▁dism	-3516
▁ends	-3517
▁gain	-3518
▁gift	-3519
▁hark	-3520
▁hurt	-3521
▁isle	-3522
▁joys	-3523
▁lamb	-3524
▁legs	-3525
▁loud	-3526
▁meat	-3527
▁mend	-3528
▁mill	-3529
▁miss	-3530
▁nose	-3531
▁pair	-3532
▁port	-3533
▁ring	-3534
▁sway	-3535
▁wine	-3536
▁wond	-3537
ission	-3538
ixenes	-3539
mbling	-3540
urance	-3541
ursday	-3542
▁BALTH	-3543
▁Great	-3544
▁Lewis	-3545
▁MAMIL	-3546
▁Somer	-3547
▁Still	-3548
▁adieu	-3549
▁appre	-3550
▁aught	-3551
▁awake	-3552
▁borne	-3553
▁brook	-3554
▁chair	-3555
▁chide	-3556
▁crack	-3557
▁drawn	-3558
▁drops	-3559
▁durst	-3560
▁faces	-3561
▁fools	-3562
▁gives	-3563
▁knife	-3564
▁leads	-3565
▁mourn	-3566
▁naked	-3567
▁names	-3568
▁paper	-3569
▁persu	-3570
▁rogue	-3571
▁speci	-3572
▁store	-3573
▁story	-3574
▁taken	-3575
▁teeth	-3576
▁until	-3577
▁weary	-3578
hearted	-3579
utation	-3580
▁BRAKEN	-3581
▁Having	-3582
▁TYBALT	-3583
▁advers	-3584
▁advise	-3585
▁always	-3586
▁belike	-3587
▁crowns	-3588
▁damned	-3589
▁denied	-3590
▁employ	-3591
▁expect	-3592
▁hatred	-3593
▁humbly	-3594
▁making	-3595
▁misery	-3596
▁physic	-3597
▁proper	-3598
▁prophe	-3599
▁remedy	-3600
▁rotten	-3601
▁seeing	-3602
▁shadow	-3603
▁solemn	-3604
▁thinks	-3605
▁waters	-3606
▁MOWBRAY	-3607
▁Whither	-3608
▁account	-3609
▁affairs	-3610
▁beloved	-3611
▁benefit	-3612
▁burthen	-3613
▁commend	-3614
▁deposed	-3615
▁despite	-3616
▁disdain	-3617
▁looking	-3618
▁perfect	-3619
▁pleased	-3620
▁provost	-3621
▁resolve	-3622
▁tedious	-3623
▁wedding	-3624
▁wherein	-3625
▁Somerset	-3626
▁Thursday	-3627
▁complain	-3628
▁contract	-3629
▁forsworn	-3630
▁friendly	-3631
▁ignorant	-3632
▁language	-3633
▁minister	-3634
▁possible	-3635
▁services	-3636
▁shouldst	-3637
▁threaten	-3638
▁trumpets	-3639
▁BALTHASAR	-3640
▁MAMILLIUS	-3641
▁Polixenes	-3642
▁assurance	-3643
▁daughters	-3644
▁BRAKENBURY	-3645
▁resolution	-3646
▁countenance	-3647
▁counterfeit	-3648
▁disposition	-3649
HY	-3650
SA	-3651
ek	-3652
oe	-3653
ys	-3654
CAS	-3655
aff	-3656
eed	-3657
eld	-3658
ene	-3659
irg	-3660
ita	-3661
pet	-3662
rib	-3663
▁El	-3664
▁Fo	-3665
▁pi	-3666
ALER	-3667
ERCY	-3668
OPSA	-3669
USHY	-3670
ades	-3671
ashi	-3672
atic	-3673
ault	-3674
cend	-3675
draw	-3676
ency	-3677
hend	-3678
hest	-3679
itol	-3680
ping	-3681
reme	-3682
room	-3683
roth	-3684
same	-3685
sequ	-3686
tled	-3687
uses	-3688
wise	-3689
yard	-3690
▁App	-3691
▁Ind	-3692
▁Nap	-3693
▁cal	-3694
▁cam	-3695
▁clo	-3696
▁cup	-3697
▁det	-3698
▁gru	-3699
▁hit	-3700
▁led	-3701
▁lip	-3702
▁owe	-3703
▁rap	-3704
▁ung	-3705
▁van	-3706
▁vex	-3707
▁wag	-3708
▁wol	-3709
▁wot	-3710
after	-3711
agger	-3712
aline	-3713
ellig	-3714
ellow	-3715
ement	-3716
erved	-3717
ising	-3718
itude	-3719
kedom	-3720
▁Bear	-3721
▁Comm	-3722
▁Help	-3723
▁Mark	-3724
▁None	-3725
▁Only	-3726
▁Page	-3727
▁bran	-3728
▁cens	-3729
▁debt	-3730
▁drum	-3731
▁earn	-3732
▁east	-3733
▁fail	-3734
▁feed	-3735
▁gage	-3736
▁gate	-3737
▁lean	-3738
▁lend	-3739
▁line	-3740
▁lion	-3741
▁mere	-3742
▁mile	-3743
▁nine	-3744
▁nobl	-3745
▁plot	-3746
▁pure	-3747
▁qual	-3748
▁rash	-3749
▁roar	-3750
▁rock	-3751
▁rule	-3752
▁ruth	-3753
▁sink	-3754
▁slay	-3755
▁slow	-3756
▁spur	-3757
▁step	-3758
▁used	-3759
▁vent	-3760
▁weap	-3761
▁went	-3762
▁wood	-3763
ALERIA	-3764
chance	-3765
illing	-3766
iteous	-3767
lesome	-3768
ourish	-3769
strous	-3770
urious	-3771
▁BUSHY	-3772
▁Leave	-3773
▁Lucio	-3774
▁MOPSA	-3775
▁PERCY	-3776
▁Right	-3777
▁Young	-3778
▁alter	-3779
▁catch	-3780
▁clear	-3781
▁dares	-3782
▁deare	-3783
▁exile	-3784
▁fares	-3785
▁frame	-3786
▁griev	-3787
▁holds	-3788
▁journ	-3789
▁large	-3790
▁lusty	-3791
▁peril	-3792
▁prize	-3793
▁provo	-3794
▁raise	-3795
▁realm	-3796
▁round	-3797
▁scene	-3798
▁scept	-3799
▁seest	-3800
▁sharp	-3801
▁south	-3802
▁swell	-3803
▁terms	-3804
▁unnat	-3805
▁urged	-3806
▁whole	-3807
▁wings	-3808
▁woful	-3809
ression	-3810
▁DORCAS	-3811
▁French	-3812
▁Worthy	-3813
▁accuse	-3814
▁advice	-3815
▁affect	-3816
▁asleep	-3817
▁begins	-3818
▁behalf	-3819
▁beyond	-3820
▁colour	-3821
▁county	-3822
▁credit	-3823
▁cursed	-3824
▁degree	-3825
▁desert	-3826
▁direct	-3827
▁execut	-3828
▁flight	-3829
▁fright	-3830
▁grieve	-3831
▁groans	-3832
▁joyful	-3833
▁leaves	-3834
▁lovely	-3835
▁muster	-3836
▁palace	-3837
▁partic	-3838
▁perish	-3839
▁public	-3840
▁punish	-3841
▁purcha	-3842
▁quench	-3843
▁rememb	-3844
▁repair	-3845
▁repent	-3846
▁silver	-3847
▁spoken	-3848
▁thrive	-3849
▁yonder	-3850
▁Capitol	-3851
▁Nothing	-3852
▁Officer	-3853
▁VALERIA	-3854
▁becomes	-3855
▁betwixt	-3856
▁captain	-3857
▁charged	-3858
▁conduct	-3859
▁destroy	-3860
▁dukedom	-3861
▁forbear	-3862
▁garland	-3863
▁hanging	-3864
▁instant	-3865
▁manners	-3866
▁opinion	-3867
▁passage	-3868
▁privile	-3869
▁receive	-3870
▁remains	-3871
▁several	-3872
▁spirits	-3873
▁unknown	-3874
▁wounded	-3875
▁Musician	-3876
▁Rosaline	-3877
▁courtesy	-3878
▁discover	-3879
▁imprison	-3880
▁murderer	-3881
▁senators	-3882
▁shoulder	-3883
▁Christian	-3884
▁afternoon	-3885
▁contented	-3886
▁excellent	-3887
▁followers	-3888
▁happiness	-3889
▁monstrous	-3890
▁neighbour	-3891
▁obedience	-3892
▁pronounce	-3893
▁sometimes	-3894
▁government	-3895
▁gentlewoman	-3896
▁treacherous	-3897
CH	-3898
GH	-3899
NS	-3900
OS	-3901
RR	-3902
bb	-3903
rt	-3904
te	-3905
NSO	-3906
OSS	-3907
RCH	-3908
aly	-3909
ams	-3910
ane	-3911
cei	-3912
dds	-3913
enn	-3914
ept	-3915
idd	-3916
kin	-3917
lar	-3918
lic	-3919
ote	-3920
pic	-3921
ric	-3922
thi	-3923
▁Bi	-3924
RREL	-3925
aces	-3926
anct	-3927
ancy	-3928
arts	-3929
cape	-3930
ello	-3931
erns	-3932
esar	-3933
head	-3934
ills	-3935
iven	-3936
mity	-3937
oral	-3938
rain	-3939
uary	-3940
what	-3941
▁ALO	-3942
▁Ire	-3943
▁Pre	-3944
▁Son	-3945
▁Tit	-3946
▁dri	-3947
▁equ	-3948
▁haz	-3949
▁hop	-3950
▁mag	-3951
▁sky	-3952
▁squ	-3953
▁tut	-3954
▁unp	-3955
akest	-3956
ences	-3957
enius	-3958
ified	-3959
ishop	-3960
ories	-3961
orses	-3962
ouchs	-3963
shire	-3964
think	-3965
ument	-3966
vours	-3967
▁ARCH	-3968
▁Draw	-3969
▁Grey	-3970
▁Jack	-3971
▁Play	-3972
▁ROSS	-3973
▁Sold	-3974
▁Stri	-3975
▁able	-3976
▁alas	-3977
▁amen	-3978
▁bade	-3979
▁bare	-3980
▁begg	-3981
▁bury	-3982
▁calm	-3983
▁clim	-3984
▁cock	-3985
▁conc	-3986
▁dign	-3987
▁diss	-3988
▁fors	-3989
▁frow	-3990
▁heed	-3991
▁hunt	-3992
▁melt	-3993
▁merc	-3994
▁odds	-3995
▁pawn	-3996
▁perj	-3997
▁puts	-3998
▁rose	-3999
▁seas	-4000
▁sins	-4001
▁sire	-4002
▁stol	-4003
▁test	-4004
▁tomb	-4005
▁virg	-4006
▁wait	-4007
▁yoke	-4008
idence	-4009
ourage	-4010
picion	-4011
ustice	-4012
▁Biond	-4013
▁Ghost	-4014
▁March	-4015
▁Mayor	-4016
▁Widow	-4017
▁adver	-4018
▁agree	-4019
▁avoid	-4020
▁begun	-4021
▁blush	-4022
▁brain	-4023
▁build	-4024
▁craft	-4025
▁curst	-4026
▁dying	-4027
▁elder	-4028
▁fatal	-4029
▁flies	-4030
▁green	-4031
▁hopes	-4032
▁mayor	-4033
▁nobly	-4034
▁north	-4035
▁parts	-4036
▁pitch	-4037
▁pound	-4038
▁prett	-4039
▁revol	-4040
▁sanct	-4041
▁seize	-4042
▁shape	-4043
▁sighs	-4044
▁slept	-4045
▁sooth	-4046
▁spare	-4047
▁stamp	-4048
▁strew	-4049
▁taste	-4050
▁thief	-4051
▁trade	-4052
▁veins	-4053
▁weigh	-4054
▁winds	-4055
▁witch	-4056
▁wreck	-4057
▁wrink	-4058
▁write	-4059
ination	-4060
itation	-4061
ricians	-4062
▁AEdile	-4063
▁ALONSO	-4064
▁Caesar	-4065
▁Father	-4066
▁Fourth	-4067
▁Indeed	-4068
▁Myself	-4069
▁Naples	-4070
▁Rivers	-4071
▁TYRREL	-4072
▁Tailor	-4073
▁Thanks	-4074
▁Volsce	-4075
▁absent	-4076
▁armour	-4077
▁castle	-4078
▁comest	-4079
▁compan	-4080
▁dagger	-4081
▁design	-4082
▁disper	-4083
▁endure	-4084
▁gently	-4085
▁giving	-4086
▁hanged	-4087
▁island	-4088
▁maiden	-4089
▁mouths	-4090
▁nought	-4091
▁partly	-4092
▁powers	-4093
▁rascal	-4094
▁regard	-4095
▁secure	-4096
▁silent	-4097
▁surely	-4098
▁temper	-4099
▁theirs	-4100
▁thrust	-4101
▁twelve	-4102
▁waking	-4103
▁wander	-4104
▁Believe	-4105
▁Beseech	-4106
▁Conspir	-4107
▁Ireland	-4108
▁Marshal	-4109
▁Sicilia	-4110
▁apparel	-4111
▁assured	-4112
▁commons	-4113
▁compass	-4114
▁corrupt	-4115
▁courage	-4116
▁earnest	-4117
▁forfeit	-4118
▁forgive	-4119
▁froward	-4120
▁journey	-4121
▁mistake	-4122
▁passing	-4123
▁piteous	-4124
▁protest	-4125
▁sceptre	-4126
▁soundly	-4127
▁suspect	-4128
▁torment	-4129
▁tremble	-4130
▁violent	-4131
▁Menenius	-4132
▁banished	-4133
▁constant	-4134
▁continue	-4135
▁contrary	-4136
▁deserves	-4137
▁forswear	-4138
▁garments	-4139
▁instruct	-4140
▁intellig	-4141
▁pleasant	-4142
▁princess	-4143
▁resolved	-4144
▁revenged	-4145
▁Biondello	-4146
▁Gentlemen	-4147
▁advantage	-4148
▁hereafter	-4149
▁household	-4150
▁protector	-4151
▁reverence	-4152
▁undertake	-4153
▁unnatural	-4154
▁particular	-4155
▁instruction	-4156
BH	-4157
jo	-4158
zz	-4159
?--	-4160
FOL	-4161
SET	-4162
dig	-4163
eve	-4164
hor	-4165
ker	-4166
mon	-4167
que	-4168
rey	-4169
tic	-4170
uce	-4171
upt	-4172
val	-4173
▁Ho	-4174
▁Lo	-4175
▁Sm	-4176
BHOR	-4177
FOLK	-4178
ably	-4179
ages	-4180
ales	-4181
ants	-4182
atcl	-4183
atsw	-4184
cary	-4185
deem	-4186
dita	-4187
eder	-4188
erby	-4189
fret	-4190
gers	-4191
iety	-4192
illy	-4193
llen	-4194
more	-4195
mory	-4196
pass	-4197
port	-4198
teen	-4199
time	-4200
uten	-4201
weal	-4202
▁Bra	-4203
▁Bus	-4204
▁Cal	-4205
▁Get	-4206
▁Int	-4207
▁Nat	-4208
▁Rem	-4209
▁Rep	-4210
▁Val	-4211
▁ach	-4212
▁apt	-4213
▁arg	-4214
▁fig	-4215
▁glo	-4216
▁imm	-4217
▁jot	-4218
▁kin	-4219
▁mat	-4220
▁nap	-4221
▁oak	-4222
▁ope	-4223
▁pee	-4224
▁spr	-4225
▁spy	-4226
▁tim	-4227
▁unb	-4228
andal	-4229
aning	-4230
arent	-4231
clock	-4232
etite	-4233
faced	-4234
happy	-4235
ieved	-4236
olute	-4237
ourse	-4238
rease	-4239
ullus	-4240
umble	-4241
ushes	-4242
▁Anti	-4243
▁Conf	-4244
▁Hail	-4245
▁Know	-4246
▁Long	-4247
▁Many	-4248
▁Save	-4249
▁Time	-4250
▁aunt	-4251
▁babe	-4252
▁begu	-4253
▁bird	-4254
▁boar	-4255
▁braw	-4256
▁cher	-4257
▁clam	-4258
▁comb	-4259
▁conj	-4260
▁cost	-4261
▁helm	-4262
▁host	-4263
▁lent	-4264
▁mood	-4265
▁mult	-4266
▁nail	-4267
▁ones	-4268
▁rare	-4269
▁reck	-4270
▁repe	-4271
▁ripe	-4272
▁sple	-4273
▁wept	-4274
▁west	-4275
▁whip	-4276
▁wink	-4277
▁worn	-4278
▁yond	-4279
ellion	-4280
father	-4281
forced	-4282
seless	-4283
soever	-4284
stable	-4285
uteous	-4286
▁ABHOR	-4287
▁About	-4288
▁Derby	-4289
▁Hunts	-4290
▁Italy	-4291
▁Ratcl	-4292
▁Those	-4293
▁Titus	-4294
▁abide	-4295
▁alack	-4296
▁alike	-4297
▁beard	-4298
▁began	-4299
▁below	-4300
▁books	-4301
▁cease	-4302
▁conce	-4303
▁delay	-4304
▁diffe	-4305
▁disgu	-4306
▁disse	-4307
▁drums	-4308
▁exerc	-4309
▁fashi	-4310
▁flood	-4311
▁folly	-4312
▁grows	-4313
▁habit	-4314
▁haply	-4315
▁harsh	-4316
▁innoc	-4317
▁maint	-4318
▁meant	-4319
▁oaths	-4320
▁offic	-4321
▁oppos	-4322
▁parli	-4323
▁peers	-4324
▁penit	-4325
▁prick	-4326
▁recom	-4327
▁scold	-4328
▁scope	-4329
▁sends	-4330
▁smell	-4331
▁stret	-4332
▁study	-4333
▁swain	-4334
▁table	-4335
▁tells	-4336
▁thorn	-4337
▁vault	-4338
▁venom	-4339
atswain	-4340
utenant	-4341
▁Cannot	-4342
▁County	-4343
▁DORSET	-4344
▁Exeter	-4345
▁Follow	-4346
▁Rather	-4347
▁Volsci	-4348
▁aboard	-4349
▁accord	-4350
▁amazed	-4351
▁beasts	-4352
▁belong	-4353
▁bodies	-4354
▁camest	-4355
▁caught	-4356
▁chaste	-4357
▁choler	-4358
▁circum	-4359
▁comple	-4360
▁curses	-4361
▁deaths	-4362
▁deceit	-4363
▁enmity	-4364
▁estate	-4365
▁fairly	-4366
▁famous	-4367
▁fierce	-4368
▁freely	-4369
▁horses	-4370
▁imposs	-4371
▁kingly	-4372
▁length	-4373
▁lovest	-4374
▁native	-4375
▁perpet	-4376
▁pieces	-4377
▁points	-4378
▁profit	-4379
▁raised	-4380
▁record	-4381
▁redeem	-4382
▁refuse	-4383
▁remove	-4384
▁resist	-4385
▁reward	-4386
▁seldom	-4387
▁serves	-4388
▁smiles	-4389
▁steeds	-4390
▁stroke	-4391
▁supply	-4392
▁taught	-4393
▁virgin	-4394
▁visage	-4395
▁whiles	-4396
othecary	-4397
ouchsafe	-4398
▁NORFOLK	-4399
▁Perdita	-4400
▁Pomfret	-4401
▁Proceed	-4402
▁Soldier	-4403
▁accused	-4404
▁advance	-4405
▁bearing	-4406
▁besides	-4407
▁bethink	-4408
▁conceit	-4409
▁confirm	-4410
▁current	-4411
▁desires	-4412
▁dignity	-4413
▁dischar	-4414
▁fairest	-4415
▁feather	-4416
▁follows	-4417
▁foreign	-4418
▁granted	-4419
▁passion	-4420
▁perhaps	-4421
▁princes	-4422
▁seeming	-4423
▁sorrows	-4424
▁special	-4425
▁swallow	-4426
▁sweeter	-4427
▁trumpet	-4428
▁tyranny	-4429
▁warlike	-4430
▁whereof	-4431
▁willing	-4432
▁windows	-4433
▁wrought	-4434
▁younger	-4435
▁ABHORSON	-4436
▁Huntsman	-4437
▁Ratcliff	-4438
▁appetite	-4439
▁approach	-4440
▁disgrace	-4441
▁fortunes	-4442
▁fourteen	-4443
▁glorious	-4444
▁greatest	-4445
▁grievous	-4446
▁heartily	-4447
▁offended	-4448
▁perforce	-4449
▁renowned	-4450
▁reverend	-4451
▁servants	-4452
▁supposed	-4453
▁wondrous	-4454
▁commanded	-4455
▁committed	-4456
▁greatness	-4457
▁infection	-4458
▁rebellion	-4459
▁respected	-4460
▁sanctuary	-4461
▁suspicion	-4462
▁willingly	-4463
▁commonweal	-4464
▁countrymen	-4465
▁instrument	-4466
▁parliament	-4467
▁patricians	-4468
▁adversaries	-4469
▁instruments	-4470
▁remembrance	-4471
▁entertainment	-4472
Th	-4473
fl	-4474
gl	-4475
ib	-4476
pr	-4477
.--	-4478
;--	-4479
ARN	-4480
EOM	-4481
INE	-4482
LIS	-4483
LOU	-4484
aug	-4485
con	-4486
cue	-4487
elt	-4488
esu	-4489
fer	-4490
ipp	-4491
lan	-4492
nal	-4493
nty	-4494
oot	-4495
rac	-4496
sey	-4497
uch	-4498
▁Af	-4499
▁Ap	-4500
▁Aw	-4501
▁Gu	-4502
▁Kn	-4503
▁Ra	-4504
▁Se	-4505
▁Wr	-4506
▁Ye	-4507
▁fi	-4508
▁sn	-4509
▁sy	-4510
GHBY	-4511
aker	-4512
alis	-4513
ares	-4514
ater	-4515
cate	-4516
ctor	-4517
grim	-4518
held	-4519
hern	-4520
iate	-4521
icio	-4522
iege	-4523
iter	-4524
lied	-4525
oops	-4526
rers	-4527
roll	-4528
ruly	-4529
sell	-4530
sion	-4531
ties	-4532
tles	-4533
vior	-4534
▁Att	-4535
▁Ben	-4536
▁Ber	-4537
▁Bre	-4538
▁Bur	-4539
▁Cle	-4540
▁Cry	-4541
▁Cur	-4542
▁Ely	-4543
▁Him	-4544
▁Imp	-4545
▁Lay	-4546
▁Lie	-4547
▁Min	-4548
▁Pat	-4549
▁Tar	-4550
▁WIL	-4551
▁Wed	-4552
▁Woe	-4553
▁ago	-4554
▁deb	-4555
▁dig	-4556
▁dim	-4557
▁fee	-4558
▁fun	-4559
▁hor	-4560
▁ink	-4561
▁its	-4562
▁jew	-4563
▁nim	-4564
▁ped	-4565
▁pol	-4566
▁pot	-4567
▁sav	-4568
▁spl	-4569
▁sue	-4570
▁swe	-4571
▁tap	-4572
▁tou	-4573
▁une	-4574
▁unl	-4575
▁ves	-4576
▁wid	-4577
▁yes	-4578
▁yon	-4579
ERDIN	-4580
ables	-4581
aming	-4582
ances	-4583
atest	-4584
chief	-4585
choly	-4586
earer	-4587
ember	-4588
erity	-4589
ested	-4590
groom	-4591
hamed	-4592
herit	-4593
icate	-4594
icles	-4595
ierce	-4596
ignty	-4597
imely	-4598
irect	-4599
itiff	-4600
itten	-4601
osing	-4602
ouses	-4603
ulate	-4604
▁Anne	-4605
▁Anon	-4606
▁BARN	-4607
▁Came	-4608
▁Dear	-4609
▁Disp	-4610
▁Down	-4611
▁Each	-4612
▁Find	-4613
▁Forb	-4614
▁Lart	-4615
▁Post	-4616
▁Send	-4617
▁Soft	-4618
▁Supp	-4619
▁Vill	-4620
▁Wife	-4621
▁butt	-4622
▁chat	-4623
▁deck	-4624
▁decl	-4625
▁edge	-4626
▁fame	-4627
▁fawn	-4628
▁feet	-4629
▁flow	-4630
▁furn	-4631
▁gaze	-4632
▁grey	-4633
▁hire	-4634
▁holp	-4635
▁knot	-4636
▁lark	-4637
▁laws	-4638
▁lets	-4639
▁main	-4640
▁mess	-4641
▁nice	-4642
▁nupt	-4643
▁paid	-4644
▁pear	-4645
▁pern	-4646
▁rain	-4647
▁rank	-4648
▁ride	-4649
▁salt	-4650
▁seiz	-4651
▁sell	-4652
▁sets	-4653
▁sham	-4654
▁slip	-4655
▁sore	-4656
▁spit	-4657
▁stro	-4658
▁tall	-4659
▁tame	-4660
▁task	-4661
▁tres	-4662
▁trif	-4663
▁unfe	-4664
▁urge	-4665
▁vows	-4666
▁ward	-4667
▁wide	-4668
▁wing	-4669
▁wolf	-4670
ARDINE	-4671
aments	-4672
bation	-4673
ingers	-4674
scalus	-4675
ushing	-4676
▁Among	-4677
▁Bring	-4678
▁Bushy	-4679
▁CLEOM	-4680
▁Elbow	-4681
▁Froth	-4682
▁GREEN	-4683
▁Green	-4684
▁Happy	-4685
▁Licio	-4686
▁Makes	-4687
▁Salis	-4688
▁Shore	-4689
▁Somet	-4690
▁Uncle	-4691
▁Until	-4692
▁abhor	-4693
▁abuse	-4694
▁accus	-4695
▁affli	-4696
▁amiss	-4697
▁angel	-4698
▁babes	-4699
▁backs	-4700
▁block	-4701
▁blunt	-4702
▁brace	-4703
▁bread	-4704
▁burst	-4705
▁chase	-4706
▁confe	-4707
▁corre	-4708
▁counc	-4709
▁daily	-4710
▁event	-4711
▁fancy	-4712
▁finds	-4713
▁fires	-4714
▁flint	-4715
▁freed	-4716
▁groan	-4717
▁hasty	-4718
▁heels	-4719
▁heirs	-4720
▁human	-4721
▁image	-4722
▁impat	-4723
▁incen	-4724
▁manif	-4725
▁melan	-4726
▁metal	-4727
▁minds	-4728
▁mirth	-4729
▁negle	-4730
▁pause	-4731
▁press	-4732
▁ruled	-4733
▁share	-4734
▁shook	-4735
▁spite	-4736
▁spoil	-4737
▁stern	-4738
▁sting	-4739
▁stopp	-4740
▁stout	-4741
▁suits	-4742
▁super	-4743
▁swore	-4744
▁takes	-4745
▁tarry	-4746
▁thick	-4747
▁third	-4748
▁thumb	-4749
▁tooth	-4750
▁troop	-4751
▁turns	-4752
▁twain	-4753
▁wakes	-4754
▁wants	-4755
▁waste	-4756
▁waves	-4757
▁weeps	-4758
▁whore	-4759
LOUGHBY	-4760
▁Behold	-4761
▁Better	-4762
▁FERDIN	-4763
▁Making	-4764
▁Marian	-4765
▁Tullus	-4766
▁abused	-4767
▁appeal	-4768
▁arrest	-4769
▁assure	-4770
▁ballad	-4771
▁barren	-4772
▁bigger	-4773
▁brings	-4774
▁called	-4775
▁charac	-4776
▁darest	-4777
▁forced	-4778
▁graves	-4779
▁griefs	-4780
▁guests	-4781
▁hardly	-4782
▁hungry	-4783
▁kindly	-4784
▁knaves	-4785
▁league	-4786
▁memory	-4787
▁months	-4788
▁number	-4789
▁object	-4790
▁places	-4791
▁praise	-4792
▁rapier	-4793
▁revolt	-4794
▁rights	-4795
▁senses	-4796
▁shapes	-4797
▁shines	-4798
▁shrewd	-4799
▁shrift	-4800
▁sights	-4801
▁simple	-4802
▁single	-4803
▁slaves	-4804
▁smooth	-4805
▁statue	-4806
▁subtle	-4807
▁suffic	-4808
▁sullen	-4809
▁thrice	-4810
▁troops	-4811
▁trusty	-4812
▁uncles	-4813
▁unkind	-4814
▁unless	-4815
▁vessel	-4816
▁wealth	-4817
▁weapon	-4818
▁worthi	-4819
banished	-4820
▁Escalus	-4821
▁Lartius	-4822
▁Whether	-4823
▁attempt	-4824
▁betimes	-4825
▁caitiff	-4826
▁cherish	-4827
▁consort	-4828
▁enforce	-4829
▁execute	-4830
▁fearing	-4831
▁hateful	-4832
▁meeting	-4833
▁misfort	-4834
▁natural	-4835
▁nuptial	-4836
▁peevish	-4837
▁pilgrim	-4838
▁praises	-4839
▁proport	-4840
▁removed	-4841
▁royalty	-4842
▁scatter	-4843
▁shadows	-4844
▁streets	-4845
▁substit	-4846
▁suitors	-4847
▁tempest	-4848
▁thereby	-4849
▁torture	-4850
▁weather	-4851
▁whereon	-4852
▁written	-4853
▁accident	-4854
▁acquaint	-4855
▁alliance	-4856
▁breathed	-4857
▁careless	-4858
▁consider	-4859
▁devotion	-4860
▁executed	-4861
▁exercise	-4862
▁faithful	-4863
▁flourish	-4864
▁increase	-4865
▁maintain	-4866
▁midnight	-4867
▁obedient	-4868
▁officers	-4869
▁powerful	-4870
▁purchase	-4871
▁ruthless	-4872
▁selfsame	-4873
▁sickness	-4874
▁stranger	-4875
▁stronger	-4876
▁tomorrow	-4877
▁trespass	-4878
▁youngest	-4879
▁Boatswain	-4880
▁CLEOMENES	-4881
▁FERDINAND	-4882
▁Salisbury	-4883
▁Wiltshire	-4884
▁according	-4885
▁apprehend	-4886
▁beauteous	-4887
▁courteous	-4888
▁direction	-4889
▁messenger	-4890
▁mischance	-4891
▁prettiest	-4892
▁prevented	-4893
▁privilege	-4894
▁senseless	-4895
▁substance	-4896
▁wholesome	-4897
▁BARNARDINE	-4898
▁WILLOUGHBY	-4899
▁affections	-4900
▁bridegroom	-4901
▁commission	-4902
▁conference	-4903
▁determined	-4904
▁discontent	-4905
▁melancholy	-4906
▁pernicious	-4907
▁triumphant	-4908
▁Conspirator	-4909
▁sovereignty	-4910
▁commonwealth	-4911
AG	-4912
EP	-4913
IT	-4914
OT	-4915
ax	-4916
go	-4917
BAN	-4918
EOR	-4919
EPH	-4920
God	-4921
bio	-4922
cri	-4923
erw	-4924
got	-4925
iam	-4926
ipe	-4927
ips	-4928
mas	-4929
mbl	-4930
ndy	-4931
ola	-4932
owl	-4933
rat	-4934
run	-4935
ser	-4936
ulf	-4937
▁Em	-4938
▁Im	-4939
▁Oh	-4940
▁Vi	-4941
▁fr	-4942
AGOT	-4943
AMUS	-4944
ROTH	-4945
athe	-4946
bble	-4947
bert	-4948
cies	-4949
clam	-4950
ders	-4951
enna	-4952
ersu	-4953
fall	-4954
fold	-4955
give	-4956
hrew	-4957
ilan	-4958
ilth	-4959
irty	-4960
ital	-4961
just	-4962
made	-4963
maid	-4964
mong	-4965
nken	-4966
onci	-4967
oned	-4968
owry	-4969
rank	-4970
rity	-4971
roof	-4972
rrel	-4973
sire	-4974
that	-4975
ueen	-4976
ulls	-4977
utch	-4978
vive	-4979
wife	-4980
▁Add	-4981
▁CAR	-4982
▁ELY	-4983
▁Fit	-4984
▁Hie	-4985
▁Lau	-4986
▁RUT	-4987
▁Ret	-4988
▁Rom	-4989
▁Six	-4990
▁Sur	-4991
▁Thr	-4992
▁Ven	-4993
▁ale	-4994
▁bir	-4995
▁cab	-4996
▁eng	-4997
▁fan	-4998
▁fix	-4999
▁ing	-5000
▁lap	-5001
▁lun	-5002
▁lur	-5003
▁mew	-5004
▁orn	-5005
▁pru	-5006
▁rue	-5007
▁sal	-5008
▁sau	-5009
▁var	-5010
EORGE	-5011
LIBAN	-5012
LISLE	-5013
Twere	-5014
acles	-5015
agues	-5016
ardel	-5017
blood	-5018
cheth	-5019
ended	-5020
ering	-5021
forth	-5022
gundy	-5023
igned	-5024
inate	-5025
isper	-5026
light	-5027
mbles	-5028
orset	-5029
ottom	-5030
overn	-5031
raced	-5032
ratch	-5033
reant	-5034
rible	-5035
riors	-5036
shall	-5037
vided	-5038
▁Betw	-5039
▁Dare	-5040
▁Desp	-5041
▁Dido	-5042
▁Does	-5043
▁Ever	-5044
▁Jesu	-5045
▁Name	-5046
▁Vaug	-5047
▁ages	-5048
▁anch	-5049
▁argu	-5050
▁bill	-5051
▁boys	-5052
▁buck	-5053
▁busy	-5054
▁buzz	-5055
▁coff	-5056
▁crow	-5057
▁curt	-5058
▁date	-5059
▁drag	-5060
▁drew	-5061
▁exam	-5062
▁fish	-5063
▁fray	-5064
▁fret	-5065
▁hail	-5066
▁hers	-5067
▁horn	-5068
▁iron	-5069
▁luck	-5070
▁neat	-5071
▁nest	-5072
▁pace	-5073
▁path	-5074
▁pent	-5075
▁pict	-5076
▁pill	-5077
▁rail	-5078
▁rejo	-5079
▁robb	-5080
▁rust	-5081
▁sees	-5082
▁serp	-5083
▁shel	-5084
▁shop	-5085
▁shri	-5086
▁sirs	-5087
▁smil	-5088
▁soci	-5089
▁song	-5090
▁suck	-5091
▁surp	-5092
▁tail	-5093
▁term	-5094
▁tide	-5095
▁toil	-5096
▁tren	-5097
▁unre	-5098
▁unse	-5099
▁unst	-5100
▁vast	-5101
▁wave	-5102
▁welc	-5103
▁worm	-5104
IDAMUS	-5105
eeming	-5106
ending	-5107
enture	-5108
ercing	-5109
fellow	-5110
ilence	-5111
isting	-5112
nesday	-5113
orough	-5114
ventry	-5115
▁Adieu	-5116
▁BAGOT	-5117
▁Canst	-5118
▁Didst	-5119
▁FROTH	-5120
▁Might	-5121
▁Milan	-5122
▁Noble	-5123
▁Persu	-5124
▁Queen	-5125
▁Sound	-5126
▁Thine	-5127
▁ambit	-5128
▁array	-5129
▁bands	-5130
▁beams	-5131
▁beget	-5132
▁blast	-5133
▁boast	-5134
▁boots	-5135
▁burns	-5136
▁burnt	-5137
▁chall	-5138
▁cheap	-5139
▁daint	-5140
▁dress	-5141
▁droop	-5142
▁eagle	-5143
▁eaten	-5144
▁fears	-5145
▁forty	-5146
▁goose	-5147
▁grain	-5148
▁hangs	-5149
▁hated	-5150
▁honey	-5151
▁imper	-5152
▁insol	-5153
▁lists	-5154
▁lover	-5155
▁merit	-5156
▁moral	-5157
▁newly	-5158
▁noted	-5159
▁parce	-5160
▁price	-5161
▁purse	-5162
▁reach	-5163
▁regal	-5164
▁revel	-5165
▁saved	-5166
▁shoes	-5167
▁sides	-5168
▁silly	-5169
▁stabb	-5170
▁steed	-5171
▁stick	-5172
▁stops	-5173
▁sweat	-5174
▁taunt	-5175
▁towns	-5176
▁trick	-5177
▁wears	-5178
ceiving	-5179
iveness	-5180
ribunes	-5181
▁Cambio	-5182
▁Dorset	-5183
▁GEORGE	-5184
▁Romans	-5185
▁Strike	-5186
▁Surrey	-5187
▁Tyrrel	-5188
▁Vienna	-5189
▁Whiles	-5190
▁afford	-5191
▁aspect	-5192
▁befall	-5193
▁beheld	-5194
▁betray	-5195
▁bottom	-5196
▁contro	-5197
▁couple	-5198
▁covert	-5199
▁depose	-5200
▁eleven	-5201
▁fairer	-5202
▁fardel	-5203
▁flatte	-5204
▁frowns	-5205
▁height	-5206
▁houses	-5207
▁joints	-5208
▁lesser	-5209
▁likely	-5210
▁liking	-5211
▁looked	-5212
▁meddle	-5213
▁middle	-5214
▁minute	-5215
▁modest	-5216
▁parent	-5217
▁pierce	-5218
▁repeal	-5219
▁repose	-5220
▁restra	-5221
▁saints	-5222
▁savage	-5223
▁saying	-5224
▁season	-5225
▁seated	-5226
▁served	-5227
▁shield	-5228
▁shroud	-5229
▁signal	-5230
▁slight	-5231
▁sought	-5232
▁spleen	-5233
▁takest	-5234
▁thirst	-5235
▁thirty	-5236
▁unfold	-5237
▁wooing	-5238
perience	-5239
▁Another	-5240
▁CALIBAN	-5241
▁Commend	-5242
▁Justice	-5243
▁Mariana	-5244
▁Neither	-5245
▁RUTLAND	-5246
▁Through	-5247
▁Vaughan	-5248
▁Villain	-5249
▁William	-5250
▁affords	-5251
▁amorous	-5252
▁arrived	-5253
▁ashamed	-5254
▁carried	-5255
▁censure	-5256
▁cheerly	-5257
▁clamour	-5258
▁conceal	-5259
▁couldst	-5260
▁descent	-5261
▁disease	-5262
▁drunken	-5263
▁earthly	-5264
▁extreme	-5265
▁fathers	-5266
▁feeling	-5267
▁fingers	-5268
▁freedom	-5269
▁gallant	-5270
▁ghostly	-5271
▁growing	-5272
▁imagine	-5273
▁kinsmen	-5274
▁knowing	-5275
▁learned	-5276
▁liberal	-5277
▁madness	-5278
▁mightst	-5279
▁monarch	-5280
▁monster	-5281
▁ourself	-5282
▁parting	-5283
▁partner	-5284
▁plainly	-5285
▁proclam	-5286
▁profane	-5287
▁prophet	-5288
▁reconci	-5289
▁redress	-5290
▁remorse	-5291
▁sadness	-5292
▁satisfy	-5293
▁scandal	-5294
▁settled	-5295
▁stretch	-5296
▁strokes	-5297
▁temples	-5298
▁tempted	-5299
▁unhappy	-5300
▁upright	-5301
▁wanting	-5302
▁whisper	-5303
▁worldly	-5304
▁yielded	-5305
▁Burgundy	-5306
▁CARLISLE	-5307
▁Coventry	-5308
▁accursed	-5309
▁anointed	-5310
▁behavior	-5311
▁bitterly	-5312
▁blessing	-5313
▁childish	-5314
▁circumst	-5315
▁conquest	-5316
▁contempt	-5317
▁counsell	-5318
▁darkness	-5319
▁exchange	-5320
▁greeting	-5321
▁heavenly	-5322
▁lengthen	-5323
▁likewise	-5324
▁mistrust	-5325
▁monument	-5326
▁preserve	-5327
▁provoked	-5328
▁speaking	-5329
▁standing	-5330
▁suddenly	-5331
▁thinking	-5332
▁treasons	-5333
▁untimely	-5334
▁warriors	-5335
▁Methought	-5336
▁Vouchsafe	-5337
▁Wednesday	-5338
▁Wherefore	-5339
▁adventure	-5340
▁ambitious	-5341
▁appointed	-5342
▁breathing	-5343
▁companion	-5344
▁complaint	-5345
▁constable	-5346
▁departure	-5347
▁determine	-5348
▁discourse	-5349
▁dispersed	-5350
▁falsehood	-5351
▁grandsire	-5352
▁ignorance	-5353
▁lightning	-5354
▁methought	-5355
▁necessity	-5356
▁nobleness	-5357
▁perpetual	-5358
▁sentenced	-5359
▁transport	-5360
▁trembling	-5361
▁ARCHIDAMUS	-5362
▁churchyard	-5363
▁entreaties	-5364
▁flattering	-5365
▁impossible	-5366
▁lamentable	-5367
▁misfortune	-5368
▁proportion	-5369
▁prosperous	-5370
▁reputation	-5371
▁succession	-5372
▁approbation	-5373
▁executioner	-5374
▁interchange	-5375
▁imprisonment	-5376
▁intelligence	-5377
Ay	-5378
IR	-5379
af	-5380
gn	-5381
gy	-5382
rs	-5383
uc	-5384
wd	-5385
yc	-5386
▁z	-5387
CRO	-5388
DRI	-5389
acy	-5390
arm	-5391
asp	-5392
bey	-5393
bod	-5394
boy	-5395
but	-5396
cra	-5397
cus	-5398
dal	-5399
ded	-5400
des	-5401
dst	-5402
gic	-5403
iar	-5404
icy	-5405
inu	-5406
iny	-5407
oes	-5408
off	-5409
ril	-5410
rop	-5411
sen	-5412
sha	-5413
sop	-5414
the	-5415
tin	-5416
uns	-5417
vet	-5418
▁Ac	-5419
▁Er	-5420
▁Ga	-5421
▁Qu	-5422
▁ah	-5423
▁ug	-5424
aged	-5425
aled	-5426
aped	-5427
ayed	-5428
cket	-5429
cure	-5430
enge	-5431
foot	-5432
hors	-5433
icle	-5434
iddy	-5435
iece	-5436
ifth	-5437
inal	-5438
inct	-5439
iver	-5440
kind	-5441
lier	-5442
mish	-5443
nday	-5444
oble	-5445
omen	-5446
ored	-5447
rage	-5448
raid	-5449
rald	-5450
reft	-5451
rich	-5452
riel	-5453
sely	-5454
some	-5455
spur	-5456
tied	-5457
wear	-5458
work	-5459
▁Acc	-5460
▁Che	-5461
▁Gra	-5462
▁Har	-5463
▁Hon	-5464
▁Jup	-5465
▁Mur	-5466
▁Ned	-5467
▁Pri	-5468
▁Rel	-5469
▁SIR	-5470
▁Sit	-5471
▁Sly	-5472
▁Sus	-5473
▁Tra	-5474
▁Wal	-5475
▁Wit	-5476
▁ash	-5477
▁aud	-5478
▁bay	-5479
▁bol	-5480
▁bru	-5481
▁bul	-5482
▁cat	-5483
▁eff	-5484
▁fin	-5485
▁fox	-5486
▁gam	-5487
▁gap	-5488
▁hag	-5489
▁hie	-5490
▁hig	-5491
▁ice	-5492
▁lev	-5493
▁mil	-5494
▁nar	-5495
▁net	-5496
▁nod	-5497
▁por	-5498
▁pup	-5499
▁rhe	-5500
▁sed	-5501
▁suc	-5502
▁tig	-5503
▁una	-5504
▁wax	-5505
▁wet	-5506
CROOP	-5507
DRIAN	-5508
EPHEN	-5509
Twixt	-5510
ative	-5511
avour	-5512
board	-5513
cting	-5514
emper	-5515
eping	-5516
erest	-5517
erves	-5518
guard	-5519
ickle	-5520
inces	-5521
inder	-5522
ision	-5523
ively	-5524
keley	-5525
olved	-5526
omach	-5527
ontes	-5528
orney	-5529
oster	-5530
othes	-5531
oting	-5532
otted	-5533
oured	-5534
pense	-5535
posed	-5536
quire	-5537
ranch	-5538
shine	-5539
there	-5540
ulous	-5541
uries	-5542
verty	-5543
volio	-5544
▁Bold	-5545
▁Cast	-5546
▁Cond	-5547
▁Dest	-5548
▁Dian	-5549
▁Else	-5550
▁Fair	-5551
▁Fall	-5552
▁Fell	-5553
▁Foul	-5554
▁Full	-5555
▁Hang	-5556
▁Happ	-5557
▁Live	-5558
▁Much	-5559
▁Part	-5560
▁Wert	-5561
▁alar	-5562
▁alms	-5563
▁asse	-5564
▁bell	-5565
▁bent	-5566
▁bore	-5567
▁brat	-5568
▁bred	-5569
▁cent	-5570
▁cler	-5571
▁coat	-5572
▁coll	-5573
▁cook	-5574
▁cool	-5575
▁cram	-5576
▁dash	-5577
▁dogs	-5578
▁dove	-5579
▁eter	-5580
▁fant	-5581
▁feat	-5582
▁fift	-5583
▁food	-5584
▁godd	-5585
▁goss	-5586
▁grat	-5587
▁harl	-5588
▁herd	-5589
▁hist	-5590
▁hoar	-5591
▁inch	-5592
▁issu	-5593
▁keys	-5594
▁lect	-5595
▁lewd	-5596
▁lick	-5597
▁lief	-5598
▁lift	-5599
▁lock	-5600
▁lour	-5601
▁meal	-5602
▁misc	-5603
▁mour	-5604
▁noon	-5605
▁nort	-5606
▁perd	-5607
▁pest	-5608
▁pick	-5609
▁pomp	-5610
▁pour	-5611
▁push	-5612
▁rack	-5613
▁rate	-5614
▁reap	-5615
▁rend	-5616
▁roof	-5617
▁snow	-5618
▁tack	-5619
▁thin	-5620
▁tops	-5621
▁torn	-5622
▁tree	-5623
▁trow	-5624
▁veil	-5625
▁whit	-5626
▁wore	-5627
▁yare	-5628
action	-5629
ceives	-5630
egrity	-5631
itable	-5632
ittany	-5633
keness	-5634
liness	-5635
master	-5636
owards	-5637
rician	-5638
spurgh	-5639
ulting	-5640
▁Ariel	-5641
▁Break	-5642
▁Comes	-5643
▁EXTON	-5644
▁Fetch	-5645
▁Raven	-5646
▁Ready	-5647
▁Shalt	-5648
▁Touch	-5649
▁Welsh	-5650
▁accom	-5651
▁admir	-5652
▁allay	-5653
▁alleg	-5654
▁amain	-5655
▁apace	-5656
▁appea	-5657
▁arise	-5658
▁beats	-5659
▁beaut	-5660
▁birds	-5661
▁blaze	-5662
▁blown	-5663
▁breed	-5664
▁cabin	-5665
▁clock	-5666
▁coast	-5667
▁coron	-5668
▁cozen	-5669
▁crept	-5670
▁crush	-5671
▁disin	-5672
▁divor	-5673
▁dowry	-5674
▁dozen	-5675
▁dried	-5676
▁eight	-5677
▁ended	-5678
▁equal	-5679
▁estim	-5680
▁fleet	-5681
▁fount	-5682
▁frank	-5683
▁front	-5684
▁frost	-5685
▁fully	-5686
▁gains	-5687
▁giddy	-5688
▁gifts	-5689
▁goods	-5690
▁helps	-5691
▁jewel	-5692
▁lambs	-5693
▁likes	-5694
▁limit	-5695
▁lions	-5696
▁lower	-5697
▁lowly	-5698
▁medic	-5699
▁midst	-5700
▁moody	-5701
▁mould	-5702
▁moves	-5703
▁ought	-5704
▁pearl	-5705
▁petty	-5706
▁pilot	-5707
▁print	-5708
▁purge	-5709
▁reply	-5710
▁rests	-5711
▁robes	-5712
▁roses	-5713
▁sadly	-5714
▁sings	-5715
▁slily	-5716
▁spark	-5717
▁stale	-5718
▁stark	-5719
▁stead	-5720
▁steps	-5721
▁straw	-5722
▁surpr	-5723
▁tired	-5724
▁torch	-5725
▁trees	-5726
▁tutor	-5727
▁vouch	-5728
▁wills	-5729
▁worms	-5730
emption	-5731
fulness	-5732
onstant	-5733
ruction	-5734
▁ADRIAN	-5735
▁Appear	-5736
▁Curtis	-5737
▁Gaoler	-5738
▁Minola	-5739
▁Murder	-5740
▁Nature	-5741
▁Return	-5742
▁SCROOP	-5743
▁Sunday	-5744
▁Venice	-5745
▁Walter	-5746
▁accomp	-5747
▁amends	-5748
▁beaten	-5749
▁betide	-5750
▁borrow	-5751
▁bowels	-5752
▁bridal	-5753
▁cheque	-5754
▁chosen	-5755
▁cloudy	-5756
▁craves	-5757
▁dearer	-5758
▁dearly	-5759
▁devils	-5760
▁devour	-5761
▁dismal	-5762
▁disple	-5763
▁eldest	-5764
▁errand	-5765
▁escape	-5766
▁except	-5767
▁falcon	-5768
▁figure	-5769
▁fondly	-5770
▁frozen	-5771
▁gather	-5772
▁gladly	-5773
▁growth	-5774
▁haught	-5775
▁herald	-5776
▁herein	-5777
▁homely	-5778
▁infant	-5779
▁insinu	-5780
▁invent	-5781
▁knocks	-5782
▁lenity	-5783
▁linger	-5784
▁livery	-5785
▁livest	-5786
▁lodged	-5787
▁marvel	-5788
▁meaner	-5789
▁moiety	-5790
▁moving	-5791
▁narrow	-5792
▁nimble	-5793
▁notice	-5794
▁obsequ	-5795
▁orator	-5796
▁parted	-5797
▁policy	-5798
▁prodig	-5799
▁rebels	-5800
▁reckon	-5801
▁retire	-5802
▁rushes	-5803
▁seized	-5804
▁severe	-5805
▁sooner	-5806
▁speedy	-5807
▁spider	-5808
▁spread	-5809
▁stolen	-5810
▁taking	-5811
▁temple	-5812
▁testim	-5813
▁thread	-5814
▁tricks	-5815
▁troubl	-5816
▁unjust	-5817
▁unlike	-5818
▁yields	-5819
shearing	-5820
▁Becomes	-5821
▁Confess	-5822
▁Jupiter	-5823
▁Leontes	-5824
▁Perhaps	-5825
▁STEPHEN	-5826
▁Towards	-5827
▁Whereof	-5828
▁actions	-5829
▁amongst	-5830
▁battles	-5831
▁bending	-5832
▁burning	-5833
▁charges	-5834
▁climate	-5835
▁clothes	-5836
▁compare	-5837
▁complex	-5838
▁conclud	-5839
▁consequ	-5840
▁dearest	-5841
▁descend	-5842
▁endured	-5843
▁example	-5844
▁faction	-5845
▁fashion	-5846
▁favours	-5847
▁fifteen	-5848
▁furnish	-5849
▁grieved	-5850
▁grieves	-5851
▁happily	-5852
▁heavier	-5853
▁ignoble	-5854
▁intents	-5855
▁lunatic	-5856
▁marshal	-5857
▁modesty	-5858
▁mothers	-5859
▁offices	-5860
▁persons	-5861
▁pitiful	-5862
▁poverty	-5863
▁presume	-5864
▁prophes	-5865
▁provide	-5866
▁pursuit	-5867
▁quarter	-5868
▁rejoice	-5869
▁require	-5870
▁scratch	-5871
▁serious	-5872
▁shallow	-5873
▁smother	-5874
▁sounded	-5875
▁springs	-5876
▁steward	-5877
▁stumble	-5878
▁succeed	-5879
▁support	-5880
▁tapster	-5881
▁telling	-5882
▁thereto	-5883
▁travell	-5884
▁trifles	-5885
▁writing	-5886
▁wronged	-5887
▁Although	-5888
▁Benvolio	-5889
▁Berkeley	-5890
▁Brittany	-5891
▁Laurence	-5892
▁Tribunes	-5893
▁Withdraw	-5894
▁absolute	-5895
▁although	-5896
▁apparent	-5897
▁bleeding	-5898
▁blushing	-5899
▁boldness	-5900
▁branches	-5901
▁changing	-5902
▁chiefest	-5903
▁conceive	-5904
▁concerns	-5905
▁conclude	-5906
▁confound	-5907
▁cowardly	-5908
▁cracking	-5909
▁delicate	-5910
▁devilish	-5911
▁doubtful	-5912
▁enforced	-5913
▁entreaty	-5914
▁function	-5915
▁humility	-5916
▁infected	-5917
▁likeness	-5918
▁mildness	-5919
▁mischief	-5920
▁mountain	-5921
▁mutinous	-5922
▁nobility	-5923
▁northern	-5924
▁opposite	-5925
▁penitent	-5926
▁persuade	-5927
▁piercing	-5928
▁pleasing	-5929
▁recreant	-5930
▁revenges	-5931
▁sleeping	-5932
▁somewhat	-5933
▁statutes	-5934
▁swelling	-5935
▁treasure	-5936
▁troubled	-5937
▁usurping	-5938
▁violence	-5939
▁weakness	-5940
▁withdraw	-5941
▁wrinkled	-5942
▁youthful	-5943
▁beholding	-5944
▁challenge	-5945
▁character	-5946
▁condemned	-5947
▁conqueror	-5948
▁discharge	-5949
▁downright	-5950
▁forthwith	-5951
▁guiltless	-5952
▁innocence	-5953
▁instantly	-5954
▁integrity	-5955
▁multitude	-5956
▁murderous	-5957
▁readiness	-5958
▁royalties	-5959
▁wandering	-5960
▁wonderful	-5961
▁allegiance	-5962
▁confession	-5963
▁flatterers	-5964
▁friendship	-5965
▁neighbours	-5966
▁possession	-5967
▁redemption	-5968
▁substitute	-5969
▁sufferance	-5970
▁sufficient	-5971
▁tenderness	-5972
▁unkindness	-5973
▁Ravenspurgh	-5974
▁brotherhood	-5975
▁proceedings	-5976
▁threatening	-5977
▁proclamation	-5978
ZW	-5979
br	-5980
do	-5981
ph	-5982
ug	-5983
we	-5984
xe	-5985
AGE	-5986
ANI	-5987
Hic	-5988
MOR	-5989
REY	-5990
The	-5991
adv	-5992
ald	-5993
ann	-5994
app	-5995
cat	-5996
ead	-5997
eks	-5998
ele	-5999
ape	-6000
cip	-6001
civ	-6002
eny	-6003
iel	-6004
ims	-6005
iqu	-6006
isk	-6007
key	-6008
len	-6009
lip	-6010
low	-6011
met	-6012
ped	-6013
ros	-6014
ted	-6015
thw	-6016
ule	-6017
ums	-6018
uto	-6019
uts	-6020
wer	-6021
zed	-6022
▁Cy	-6023
▁Du	-6024
▁Sl	-6025
▁av	-6026
▁hy	-6027
▁om	-6028
▁vi	-6029
ATER	-6030
Gain	-6031
ITZW	-6032
What	-6033
agot	-6034
alks	-6035
ased	-6036
ases	-6037
azon	-6038
bell	-6039
bour	-6040
bric	-6041
cast	-6042
cest	-6043
chol	-6044
core	-6045
cund	-6046
ella	-6047
eves	-6048
ewks	-6049
ffer	-6050
ffic	-6051
gged	-6052
gled	-6053
gory	-6054
hilo	-6055
hips	-6056
iban	-6057
ical	-6058
iced	-6059
igon	-6060
iner	-6061
inew	-6062
itch	-6063
lace	-6064
last	-6065
love	-6066
miss	-6067
mpet	-6068
nous	-6069
odow	-6070
olks	-6071
olve	-6072
omin	-6073
orax	-6074
oriz	-6075
oses	-6076
oubt	-6077
pare	-6078
phan	-6079
ples	-6080
ppet	-6081
pret	-6082
quet	-6083
quis	-6084
rial	-6085
rief	-6086
serv	-6087
seth	-6088
side	-6089
sues	-6090
uced	-6091
ules	-6092
umed	-6093
ungs	-6094
urer	-6095
ushi	-6096
will	-6097
wing	-6098
xton	-6099
▁Adv	-6100
▁Aff	-6101
▁Any	-6102
▁Beg	-6103
▁Del	-6104
▁Dep	-6105
▁Dor	-6106
▁Fal	-6107
▁Fly	-6108
▁Lam	-6109
▁Mis	-6110
▁Old	-6111
▁Pur	-6112
▁Run	-6113
▁SUR	-6114
▁Saw	-6115
▁Sim	-6116
▁Syc	-6117
▁Ten	-6118
▁Tur	-6119
▁ack	-6120
▁ann	-6121
▁axe	-6122
▁bon	-6123
▁bot	-6124
▁cop	-6125
▁ded	-6126
▁eas	-6127
▁fem	-6128
▁hom	-6129
▁inv	-6130
▁lin	-6131
▁mas	-6132
▁mir	-6133
▁moe	-6134
▁non	-6135
▁obt	-6136
▁pop	-6137
▁sep	-6138
▁sow	-6139
▁tax	-6140
▁thw	-6141
▁tro	-6142
▁tur	-6143
▁vel	-6144
▁vig	-6145
▁vol	-6146
▁vul	-6147
ANIEL	-6148
ELAND	-6149
Twill	-6150
aches	-6151
allel	-6152
amity	-6153
antle	-6154
asant	-6155
asing	-6156
athed	-6157
athom	-6158
avish	-6159
craft	-6160
eches	-6161
ening	-6162
feits	-6163
glass	-6164
grown	-6165
habit	-6166
horse	-6167
icial	-6168
iding	-6169
ilful	-6170
iliar	-6171
iners	-6172
isome	-6173
ivers	-6174
longs	-6175
mbers	-6176
neath	-6177
ocate	-6178
oming	-6179
opher	-6180
order	-6181
peian	-6182
ption	-6183
ptory	-6184
pture	-6185
rieve	-6186
roach	-6187
scals	-6188
sooth	-6189
sophy	-6190
stery	-6191
strel	-6192
throw	-6193
trees	-6194
ually	-6195
unate	-6196
water	-6197
which	-6198
▁ABRA	-6199
▁Back	-6200
▁Cher	-6201
▁Cold	-6202
▁Cont	-6203
▁DION	-6204
▁Five	-6205
▁Gard	-6206
▁Gold	-6207
▁Gree	-6208
▁Harp	-6209
▁Herc	-6210
▁Host	-6211
▁Join	-6212
▁Kent	-6213
▁Kind	-6214
▁Lend	-6215
▁Mars	-6216
▁NATH	-6217
▁Obey	-6218
▁Open	-6219
▁PAGE	-6220
▁Pres	-6221
▁Prof	-6222
▁Tush	-6223
▁Virt	-6224
▁WEST	-6225
▁West	-6226
▁abod	-6227
▁acts	-6228
▁aged	-6229
▁aims	-6230
▁alto	-6231
▁amaz	-6232
▁answ	-6233
▁arch	-6234
▁bald	-6235
▁balm	-6236
▁band	-6237
▁bank	-6238
▁blan	-6239
▁blot	-6240
▁blue	-6241
▁boon	-6242
▁bowl	-6243
▁caps	-6244
▁cave	-6245
▁chop	-6246
▁clap	-6247
▁crab	-6248
▁crew	-6249
▁cuck	-6250
▁dame	-6251
▁defy	-6252
▁dine	-6253
▁dole	-6254
▁dumb	-6255
▁farm	-6256
▁foil	-6257
▁gait	-6258
▁gaol	-6259
▁gape	-6260
▁geld	-6261
▁grim	-6262
▁gust	-6263
▁hare	-6264
▁heat	-6265
▁heel	-6266
▁hill	-6267
▁jade	-6268
▁knit	-6269
▁lace	-6270
▁leap	-6271
▁levy	-6272
▁liar	-6273
▁liqu	-6274
▁load	-6275
▁lute	-6276
▁mask	-6277
▁muff	-6278
▁omit	-6279
▁owes	-6280
▁page	-6281
▁pant	-6282
▁parl	-6283
▁pate	-6284
▁pays	-6285
▁peer	-6286
▁poll	-6287
▁prec	-6288
▁race	-6289
▁ranc	-6290
▁rear	-6291
▁ridd	-6292
▁rode	-6293
▁rush	-6294
▁scru	-6295
▁sess	-6296
▁shot	-6297
▁shru	-6298
▁silk	-6299
▁sixt	-6300
▁soil	-6301
▁spar	-6302
▁stag	-6303
▁summ	-6304
▁sung	-6305
▁syll	-6306
▁thie	-6307
▁tied	-6308
▁tink	-6309
▁trim	-6310
▁ugly	-6311
▁undo	-6312
▁vass	-6313
▁vial	-6314
▁warn	-6315
▁weal	-6316
▁week	-6317
▁wipe	-6318
▁zeal	-6319
Gainst	-6320
actors	-6321
ailing	-6322
arison	-6323
arried	-6324
attern	-6325
claims	-6326
elting	-6327
enches	-6328
igonus	-6329
iments	-6330
iquity	-6331
lihood	-6332
ossess	-6333
ousins	-6334
pardon	-6335
piring	-6336
randam	-6337
rantic	-6338
ressed	-6339
riment	-6340
strong	-6341
tering	-6342
twould	-6343
voided	-6344
witted	-6345
▁Above	-6346
▁Arise	-6347
▁Bagot	-6348
▁Bound	-6349
▁Carry	-6350
▁FITZW	-6351
▁Fifth	-6352
▁Forth	-6353
▁Gives	-6354
▁Grace	-6355
▁Hadst	-6356
▁Knock	-6357
▁Lodow	-6358
▁Mercy	-6359
▁Prove	-6360
▁Swear	-6361
▁Teach	-6362
▁Tewks	-6363
▁Thank	-6364
▁Throw	-6365
▁Truly	-6366
▁Twice	-6367
▁Women	-6368
▁Worse	-6369
▁Write	-6370
▁Yield	-6371
▁admit	-6372
▁aloof	-6373
▁aloud	-6374
▁amend	-6375
▁antic	-6376
▁apart	-6377
▁arbit	-6378
▁armed	-6379
▁bleed	-6380
▁bliss	-6381
▁bodes	-6382
▁bount	-6383
▁brass	-6384
▁bribe	-6385
▁brown	-6386
▁chest	-6387
▁clean	-6388
▁climb	-6389
▁cloak	-6390
▁coals	-6391
▁crows	-6392
▁diest	-6393
▁doors	-6394
▁doves	-6395
▁dower	-6396
▁drift	-6397
▁dukes	-6398
▁eager	-6399
▁error	-6400
▁exact	-6401
▁exped	-6402
▁falls	-6403
▁fever	-6404
▁fiend	-6405
▁filth	-6406
▁flame	-6407
▁foret	-6408
▁frail	-6409
▁gaunt	-6410
▁grass	-6411
▁groom	-6412
▁hatch	-6413
▁haunt	-6414
▁hazel	-6415
▁hedge	-6416
▁heigh	-6417
▁infer	-6418
▁lance	-6419
▁limbs	-6420
▁locks	-6421
▁lodge	-6422
▁lungs	-6423
▁lying	-6424
▁magic	-6425
▁marks	-6426
▁mates	-6427
▁merri	-6428
▁miles	-6429
▁musty	-6430
▁nails	-6431
▁named	-6432
▁noses	-6433
▁notes	-6434
▁occup	-6435
▁paint	-6436
▁perem	-6437
▁philo	-6438
▁pinch	-6439
▁prime	-6440
▁puiss	-6441
▁pupil	-6442
▁rebel	-6443
▁ripen	-6444
▁rocks	-6445
▁rouse	-6446
▁sands	-6447
▁saucy	-6448
▁scape	-6449
▁scour	-6450
▁ships	-6451
▁shout	-6452
▁shown	-6453
▁siege	-6454
▁signs	-6455
▁sinew	-6456
▁skill	-6457
▁slipp	-6458
▁spect	-6459
▁spilt	-6460
▁staff	-6461
▁stays	-6462
▁steep	-6463
▁stink	-6464
▁sugar	-6465
▁tamed	-6466
▁token	-6467
▁train	-6468
▁treas	-6469
▁tried	-6470
▁truer	-6471
▁unlaw	-6472
▁unpro	-6473
▁wager	-6474
▁waits	-6475
▁waked	-6476
▁waken	-6477
▁wheel	-6478
▁wrang	-6479
aration	-6480
enerate	-6481
hension	-6482
herited	-6483
ication	-6484
kenbury	-6485
mediate	-6486
picious	-6487
shining	-6488
▁Answer	-6489
▁Antium	-6490
▁Attend	-6491
▁Belike	-6492
▁Emilia	-6493
▁Enough	-6494
▁Forbid	-6495
▁Hector	-6496
▁Herald	-6497
▁SURREY	-6498
▁Verily	-6499
▁acknow	-6500
▁afraid	-6501
▁agreed	-6502
▁ancest	-6503
▁anchor	-6504
▁angels	-6505
▁appell	-6506
▁ashore	-6507
▁asking	-6508
▁bereft	-6509
▁beseem	-6510
▁beside	-6511
▁bestow	-6512
▁bestri	-6513
▁beware	-6514
▁bishop	-6515
▁bleeds	-6516
▁boldly	-6517
▁bosoms	-6518
▁bought	-6519
▁bounty	-6520
▁brains	-6521
▁breaks	-6522
▁burden	-6523
▁butter	-6524
▁canker	-6525
▁caused	-6526
▁causes	-6527
▁centre	-6528
▁chains	-6529
▁conver	-6530
▁create	-6531
▁dearth	-6532
▁deeper	-6533
▁deeply	-6534
▁defect	-6535
▁deform	-6536
▁denial	-6537
▁dwells	-6538
▁embass	-6539
▁enrich	-6540
▁esteem	-6541
▁fallen	-6542
▁famish	-6543
▁female	-6544
▁fights	-6545
▁forces	-6546
▁forest	-6547
▁gaoler	-6548
▁gloves	-6549
▁graced	-6550
▁harlot	-6551
▁hazard	-6552
▁hinder	-6553
▁impart	-6554
▁injury	-6555
▁inward	-6556
▁jocund	-6557
▁keeper	-6558
▁killed	-6559
▁kisses	-6560
▁lately	-6561
▁latest	-6562
▁leaden	-6563
▁lights	-6564
▁limits	-6565
▁malign	-6566
▁manage	-6567
▁marble	-6568
▁merely	-6569
▁napkin	-6570
▁naught	-6571
▁nights	-6572
▁nobler	-6573
▁obtain	-6574
▁orphan	-6575
▁patron	-6576
▁pedant	-6577
▁pedlar	-6578
▁pitied	-6579
▁plants	-6580
▁pounds	-6581
▁proved	-6582
▁prunes	-6583
▁puppet	-6584
▁pursue	-6585
▁quaint	-6586
▁raging	-6587
▁rebuke	-6588
▁reigns	-6589
▁rescue	-6590
▁revive	-6591
▁riches	-6592
▁rivers	-6593
▁scorns	-6594
▁search	-6595
▁skulls	-6596
▁sleeps	-6597
▁sounds	-6598
▁spices	-6599
▁starve	-6600
▁stocks	-6601
▁storms	-6602
▁strait	-6603
▁stream	-6604
▁street	-6605
▁strict	-6606
▁strive	-6607
▁succor	-6608
▁suitor	-6609
▁tailor	-6610
▁taunts	-6611
▁threes	-6612
▁throng	-6613
▁thrown	-6614
▁trades	-6615
▁turned	-6616
▁unborn	-6617
▁unlook	-6618
▁unrest	-6619
▁unseen	-6620
▁vanity	-6621
▁varlet	-6622
▁wedded	-6623
▁window	-6624
▁winged	-6625
▁wisely	-6626
▁yester	-6627
MORELAND	-6628
isterous	-6629
osterous	-6630
standing	-6631
▁ABRAHAM	-6632
▁Between	-6633
▁Caliban	-6634
▁Comfort	-6635
▁Command	-6636
▁Courage	-6637
▁Grandam	-6638
▁Gregory	-6639
▁Masters	-6640
▁Measure	-6641
▁Mistake	-6642
▁Sycorax	-6643
▁Whereto	-6644
▁accompl	-6645
▁achieve	-6646
▁adverse	-6647
▁advised	-6648
▁banquet	-6649
▁beastly	-6650
▁beguile	-6651
▁bidding	-6652
▁blemish	-6653
▁careful	-6654
▁closely	-6655
▁conjure	-6656
▁created	-6657
▁cuckold	-6658
▁curious	-6659
▁dancing	-6660
▁deceive	-6661
▁defence	-6662
▁degrees	-6663
▁direful	-6664
▁divided	-6665
▁divorce	-6666
▁earldom	-6667
▁eternal	-6668
▁faintly	-6669
▁falsely	-6670
▁fantast	-6671
▁fasting	-6672
▁follies	-6673
▁forsake	-6674
▁frantic	-6675
▁getting	-6676
▁glasses	-6677
▁goddess	-6678
▁grandam	-6679
▁hangman	-6680
▁harbour	-6681
▁harmony	-6682
▁history	-6683
▁holding	-6684
▁hopeful	-6685
▁impeach	-6686
▁infring	-6687
▁inherit	-6688
▁knowest	-6689
▁lasting	-6690
▁lodging	-6691
▁longest	-6692
▁lustful	-6693
▁marvell	-6694
▁members	-6695
▁minutes	-6696
▁mockery	-6697
▁murders	-6698
▁mystery	-6699
▁outrage	-6700
▁perjury	-6701
▁picture	-6702
▁prating	-6703
▁pursued	-6704
▁putting	-6705
▁rascals	-6706
▁recover	-6707
▁replied	-6708
▁reproof	-6709
▁retired	-6710
▁revenue	-6711
▁scarlet	-6712
▁secrets	-6713
▁serpent	-6714
▁shelter	-6715
▁showers	-6716
▁signify	-6717
▁sitting	-6718
▁sixteen	-6719
▁smiling	-6720
▁society	-6721
▁stomach	-6722
▁superfl	-6723
▁supreme	-6724
▁sweetly	-6725
▁threats	-6726
▁tribune	-6727
▁venture	-6728
▁villany	-6729
▁virtues	-6730
▁wayward	-6731
▁weighty	-6732
▁winters	-6733
perienced	-6734
▁Antiates	-6735
▁Capulets	-6736
▁Dispatch	-6737
▁Doricles	-6738
▁Evermore	-6739
▁Gardener	-6740
▁Hercules	-6741
▁Isabella	-6742
▁Lodowick	-6743
▁Remember	-6744
▁Sometime	-6745
▁Tarpeian	-6746
▁Touching	-6747
▁Volscian	-6748
▁Welshmen	-6749
▁admitted	-6750
▁advocate	-6751
▁affright	-6752
▁ambition	-6753
▁approved	-6754
▁attended	-6755
▁attorney	-6756
▁baseness	-6757
▁bastards	-6758
▁brawling	-6759
▁breaking	-6760
▁calamity	-6761
▁chastity	-6762
▁commends	-6763
▁compound	-6764
▁confeder	-6765
▁contents	-6766
▁councils	-6767
▁counsels	-6768
▁discords	-6769
▁distress	-6770
▁downfall	-6771
▁drinking	-6772
▁drunkard	-6773
▁entrance	-6774
▁everlast	-6775
▁extremes	-6776
▁farthest	-6777
▁fighting	-6778
▁forehead	-6779
▁forsooth	-6780
▁fruitful	-6781
▁governor	-6782
▁husbands	-6783
▁immortal	-6784
▁imperial	-6785
▁incensed	-6786
▁inclined	-6787
▁indirect	-6788
▁knightly	-6789
▁learning	-6790
▁manifest	-6791
▁mariners	-6792
▁medicine	-6793
▁millions	-6794
▁minstrel	-6795
▁miseries	-6796
▁mounting	-6797
▁musician	-6798
▁nighting	-6799
▁offences	-6800
▁perjured	-6801
▁prophesy	-6802
▁proudest	-6803
▁provided	-6804
▁publicly	-6805
▁regiment	-6806
▁reported	-6807
▁resolute	-6808
▁restored	-6809
▁returned	-6810
▁scarcely	-6811
▁scolding	-6812
▁sensible	-6813
▁singular	-6814
▁smallest	-6815
▁strongly	-6816
▁strumpet	-6817
▁sunshine	-6818
▁sweetest	-6819
▁tenderly	-6820
▁terrible	-6821
▁thankful	-6822
▁timeless	-6823
▁trembles	-6824
▁unworthy	-6825
▁villains	-6826
▁welcomes	-6827
▁worthily	-6828
▁yielding	-6829
▁Affection	-6830
▁Antigonus	-6831
▁FITZWATER	-6832
▁Montagues	-6833
▁NATHANIEL	-6834
▁Patrician	-6835
▁Tewksbury	-6836
▁Volscians	-6837
▁afterward	-6838
▁caparison	-6839
▁concluded	-6840
▁confessor	-6841
▁consorted	-6842
▁creatures	-6843
▁disguised	-6844
▁extremest	-6845
▁extremity	-6846
▁following	-6847
▁importune	-6848
▁injurious	-6849
▁insolence	-6850
▁insulting	-6851
▁interrupt	-6852
▁loathsome	-6853
▁merriment	-6854
▁mistaking	-6855
▁musicians	-6856
▁notorious	-6857
▁ornaments	-6858
▁otherwise	-6859
▁possessed	-6860
▁prisoners	-6861
▁reconcile	-6862
▁restraint	-6863
▁safeguard	-6864
▁shoulders	-6865
▁treachery	-6866
▁tyrannous	-6867
▁unfeigned	-6868
▁witnesses	-6869
▁wrangling	-6870
▁Apothecary	-6871
▁Brakenbury	-6872
▁Lieutenant	-6873
▁accusation	-6874
▁acquainted	-6875
▁altogether	-6876
▁assistance	-6877
▁boisterous	-6878
▁compassion	-6879
▁conclusion	-6880
▁conditions	-6881
▁confidence	-6882
▁coronation	-6883
▁counsellor	-6884
▁difference	-6885
▁distressed	-6886
▁estimation	-6887
▁headstrong	-6888
▁henceforth	-6889
▁impatience	-6890
▁impression	-6891
▁jealousies	-6892
▁lieutenant	-6893
▁likelihood	-6894
▁oppression	-6895
▁peremptory	-6896
▁persuasion	-6897
▁pestilence	-6898
▁philosophy	-6899
▁pilgrimage	-6900
▁recompense	-6901
▁revengeful	-6902
▁slanderous	-6903
▁underneath	-6904
▁visitation	-6905
▁whatsoever	-6906
▁whispering	-6907
▁witchcraft	-6908
▁Christopher	-6909
▁comfortable	-6910
▁composition	-6911
▁consequence	-6912
▁forgiveness	-6913
▁imagination	-6914
▁inclination	-6915
▁WESTMORELAND	-6916
▁apprehension	-6917
▁circumstance	-6918
▁discontented	-6919
▁satisfaction	-6920
'!	-6921
He	-6922
av	-6923
bu	-6924
dy	-6925
eb	-6926
ex	-6927
lm	-6928
mo	-6929
sy	-6930
ta	-6931
ado	-6932
ais	-6933
alo	-6934
azy	-6935
bel	-6936
bot	-6937
com	-6938
dro	-6939
dur	-6940
fly	-6941
mph	-6942
new	-6943
oln	-6944
ops	-6945
rit	-6946
rog	-6947
sec	-6948
soe	-6949
son	-6950
spo	-6951
ubs	-6952
urb	-6953
usc	-6954
vil	-6955
voc	-6956
▁Li	-6957
▁Ro	-6958
▁Ur	-6959
▁cy	-6960
Tell	-6961
This	-6962
acks	-6963
alty	-6964
ardy	-6965
back	-6966
bham	-6967
bles	-6968
bred	-6969
cats	-6970
cels	-6971
chen	-6972
cipl	-6973
empl	-6974
eria	-6975
eyed	-6976
fume	-6977
geia	-6978
geon	-6979
ghts	-6980
glig	-6981
gues	-6982
helm	-6983
hild	-6984
iber	-6985
ifty	-6986
ingu	-6987
irls	-6988
isle	-6989
itan	-6990
ival	-6991
ivil	-6992
izab	-6993
loqu	-6994
lore	-6995
mast	-6996
omed	-6997
reet	-6998
regn	-6999
It	-7000
oz	-7001
amy	-7002
cas	-7003
ech	-7004
isc	-7005
oin	-7006
por	-7007
agoz	-7008
cued	-7009
fend	-7010
good	-7011
hand	-7012
kens	-7013
kest	-7014
obed	-7015
peak	-7016
pter	-7017
rice	-7018
smen	-7019
tree	-7020
tune	-7021
uity	-7022
ulte	-7023
umny	-7024
urvy	-7025
utus	-7026
warn	-7027
your	-7028
▁Arm	-7029
▁Bad	-7030
▁Ban	-7031
▁Bea	-7032
▁Def	-7033
▁Div	-7034
▁Env	-7035
▁Err	-7036
▁Eur	-7037
▁Far	-7038
▁Hal	-7039
▁Hap	-7040
▁Ill	-7041
▁Lud	-7042
▁Mab	-7043
▁Pem	-7044
▁Pha	-7045
▁Phi	-7046
▁Pit	-7047
▁Ref	-7048
▁Ren	-7049
▁Rus	-7050
▁Sin	-7051
▁Sub	-7052
▁Unb	-7053
▁Unw	-7054
▁afe	-7055
▁awe	-7056
▁box	-7057
▁ced	-7058
▁dem	-7059
▁dun	-7060
▁ebb	-7061
▁enf	-7062
▁fet	-7063
▁fre	-7064
▁gay	-7065
▁hal	-7066
▁key	-7067
▁leg	-7068
▁mot	-7069
▁mow	-7070
▁oce	-7071
▁raw	-7072
▁rip	-7073
▁rub	-7074
▁sly	-7075
▁tie	-7076
▁ton	-7077
▁toy	-7078
▁unm	-7079
▁vap	-7080
ackey	-7081
agems	-7082
agine	-7083
arded	-7084
arers	-7085
artha	-7086
asciv	-7087
atics	-7088
aving	-7089
blown	-7090
brain	-7091
ccess	-7092
ceeds	-7093
ceipt	-7094
chard	-7095
child	-7096
ected	-7097
ethon	-7098
ggard	-7099
St	-7100
aus	-7101
bes	-7102
dis	-7103
pol	-7104
ton	-7105
umn	-7106
wit	-7107
Fore	-7108
Good	-7109
aith	-7110
hear	-7111
mary	-7112
rell	-7113
verd	-7114
vill	-7115
▁Var	-7116
▁esc	-7117
▁gaz	-7118
▁kit	-7119
▁mum	-7120
▁nea	-7121
▁nov	-7122
gress	-7123
heard	-7124
holds	-7125
iable	-7126
ifter	-7127
igeia	-7128
inite	-7129
jects	-7130
licit	-7131
loyal	-7132
nders	-7133
oment	-7134
peror	-7135
piece	-7136
pling	-7137
point	-7138
quiet	-7139
rails	-7140
rosby	-7141
scape	-7142
stood	-7143
stool	-7144
strue	-7145
tered	-7146
tised	-7147
uiced	-7148
urity	-7149
ustle	-7150
usual	-7151
weary	-7152
wench	-7153
where	-7154
worth	-7155
yally	-7156
▁Acqu	-7157
▁Adri	-7158
▁Capt	-7159
▁Care	-7160
▁Carl	-7161
▁Deep	-7162
▁Fill	-7163
▁Fitz	-7164
▁Fool	-7165
▁Girl	-7166
▁Half	-7167
▁High	-7168
▁Hung	-7169
▁Jule	-7170
▁Lead	-7171
▁Left	-7172
▁Leic	-7173
▁Less	-7174
▁Lies	-7175
▁Meet	-7176
▁Nept	-7177
▁Pale	-7178
▁Perc	-7179
▁Rest	-7180
▁Scot	-7181
▁Stab	-7182
▁Step	-7183
▁Stir	-7184
▁Suff	-7185
▁Talk	-7186
▁Told	-7187
▁Troy	-7188
▁Urge	-7189
▁Weep	-7190
▁aery	-7191
▁also	-7192
▁aust	-7193
▁awry	-7194
▁baby	-7195
▁bale	-7196
▁barr	-7197
▁bash	-7198
▁bats	-7199
wh	-7200
aws	-7201
cts	-7202
ris	-7203
sia	-7204
▁te	-7205
adem	-7206
bled	-7207
cock	-7208
ived	-7209
pped	-7210
reth	-7211
song	-7212
tsey	-7213
▁End	-7214
▁ape	-7215
▁tea	-7216
alion	-7217
asted	-7218
chers	-7219
ersha	-7220
hance	-7221
ilver	-7222
isher	-7223
stone	-7224
ulter	-7225
versy	-7226
▁Glad	-7227
▁Near	-7228
▁Tend	-7229
▁Tong	-7230
▁beef	-7231
▁bide	-7232
▁bonn	-7233
▁bows	-7234
▁bulk	-7235
▁bush	-7236
▁cand	-7237
▁card	-7238
▁caus	-7239
▁cele	-7240
▁cere	-7241
▁chap	-7242
▁chid	-7243
▁clog	-7244
▁coal	-7245
▁cord	-7246
▁crad	-7247
▁crim	-7248
▁crut	-7249
▁deaf	-7250
▁dece	-7251
▁deer	-7252
▁desc	-7253
▁diet	-7254
▁doct	-7255
▁doit	-7256
▁emul	-7257
▁exha	-7258
▁fact	-7259
▁fate	-7260
▁fees	-7261
▁felt	-7262
▁fest	-7263
▁file	-7264
▁fits	-7265
▁forn	-7266
▁fowl	-7267
▁gear	-7268
▁gent	-7269
▁gild	-7270
▁gilt	-7271
▁grub	-7272
▁gulf	-7273
▁hall	-7274
▁halt	-7275
▁hilt	-7276
▁howl	-7277
▁hurl	-7278
▁hush	-7279
▁jump	-7280
▁keen	-7281
▁kern	-7282
▁lads	-7283
▁lass	-7284
▁lazy	-7285
▁lurk	-7286
▁male	-7287
▁mass	-7288
▁mast	-7289
▁meas	-7290
▁meed	-7291
▁mete	-7292
▁milk	-7293
▁ming	-7294
▁moan	-7295
▁mute	-7296
▁nigh	-7297
▁numb	-7298
▁obsc	-7299
my	-7300
att	-7301
Soul	-7302
ange	-7303
aved	-7304
book	-7305
happ	-7306
hoop	-7307
onio	-7308
peci	-7309
pire	-7310
pted	-7311
rawn	-7312
reef	-7313
rish	-7314
rung	-7315
sist	-7316
umes	-7317
uned	-7318
▁Ins	-7319
▁Jun	-7320
▁Sel	-7321
▁ens	-7322
▁hen	-7323
▁jar	-7324
▁rod	-7325
Souls	-7326
acket	-7327
adise	-7328
greed	-7329
reaty	-7330
▁Gall	-7331
▁Hard	-7332
▁Ross	-7333
▁airy	-7334
▁bail	-7335
▁calf	-7336
▁dram	-7337
▁earl	-7338
▁fulf	-7339
▁game	-7340
▁hint	-7341
▁lame	-7342
▁link	-7343
▁marr	-7344
▁obst	-7345
▁palm	-7346
▁peck	-7347
▁pens	-7348
▁pine	-7349
▁plan	-7350
▁puff	-7351
▁pull	-7352
▁rans	-7353
▁rats	-7354
▁raze	-7355
▁rent	-7356
▁rese	-7357
▁resp	-7358
▁ribb	-7359
▁road	-7360
▁rood	-7361
▁runs	-7362
▁sack	-7363
▁sear	-7364
▁sequ	-7365
▁shun	-7366
▁spot	-7367
▁stem	-7368
▁stub	-7369
▁subd	-7370
▁subm	-7371
▁sued	-7372
▁sugg	-7373
▁suns	-7374
▁surn	-7375
▁swim	-7376
▁thra	-7377
▁tire	-7378
▁toad	-7379
▁toss	-7380
▁toys	-7381
▁trod	-7382
▁unaw	-7383
▁unlo	-7384
▁unsc	-7385
▁unth	-7386
▁wake	-7387
▁wasp	-7388
▁weed	-7389
▁whet	-7390
▁yard	-7391
BISHOP	-7392
acious	-7393
advent	-7394
afford	-7395
anders	-7396
antime	-7397
apable	-7398
bearer	-7399
▁bag	-7400
▁rig	-7401
agate	-7402
▁fold	-7403
bering	-7404
cedent	-7405
cholar	-7406
durate	-7407
eliver	-7408
ellows	-7409
enting	-7410
erving	-7411
estern	-7412
esters	-7413
favour	-7414
govern	-7415
haniel	-7416
harged	-7417
headed	-7418
horson	-7419
idered	-7420
ighton	-7421
iously	-7422
ivered	-7423
leness	-7424
omenes	-7425
orizel	-7426
ouches	-7427
oughby	-7428
overed	-7429
people	-7430
rament	-7431
randon	-7432
raught	-7433
reathe	-7434
rehend	-7435
retion	-7436
scaped	-7437
school	-7438
ternal	-7439
tinent	-7440
uments	-7441
usters	-7442
vering	-7443
withal	-7444
▁Afric	-7445
▁Again	-7446
▁Alban	-7447
▁Alone	-7448
▁April	-7449
▁Awake	-7450
▁Cheer	-7451
▁Child	-7452
▁Dukes	-7453
▁Exton	-7454
▁Groom	-7455
▁Guild	-7456
▁Infer	-7457
▁Knows	-7458
▁LORDS	-7459
▁Lovel	-7460
▁Mount	-7461
▁Night	-7462
▁Percy	-7463
▁Place	-7464
▁Ragoz	-7465
▁Revol	-7466
▁Sixth	-7467
▁Small	-7468
▁Smile	-7469
▁Spoke	-7470
▁Takes	-7471
▁Tarqu	-7472
▁Tiber	-7473
▁Turks	-7474
▁Wales	-7475
▁Whate	-7476
▁abund	-7477
▁aches	-7478
▁adder	-7479
▁adorn	-7480
▁afore	-7481
▁amity	-7482
▁argos	-7483
▁ashes	-7484
▁atone	-7485
▁basil	-7486
▁beads	-7487
▁befal	-7488
▁begot	-7489
▁blade	-7490
▁blots	-7491
▁bragg	-7492
▁brand	-7493
▁brine	-7494
▁broad	-7495
▁budge	-7496
▁built	-7497
▁chaff	-7498
▁chain	-7499
▁champ	-7500
▁charm	-7501
▁chron	-7502
▁civil	-7503
▁conge	-7504
▁cords	-7505
▁crest	-7506
▁crook	-7507
▁curbs	-7508
▁cushi	-7509
▁dared	-7510
▁decay	-7511
▁dined	-7512
▁dooms	-7513
▁edict	-7514
▁effem	-7515
▁eloqu	-7516
▁embra	-7517
▁endea	-7518
▁endow	-7519
▁estab	-7520
▁evils	-7521
▁faced	-7522
▁fails	-7523
▁fence	-7524
▁fifty	-7525
▁fills	-7526
▁folks	-7527
▁forms	-7528
▁girls	-7529
▁goest	-7530
▁gorge	-7531
▁graft	-7532
▁greed	-7533
▁haven	-7534
▁helms	-7535
▁herbs	-7536
▁herds	-7537
▁holid	-7538
▁hoped	-7539
▁imped	-7540
▁kites	-7541
▁knell	-7542
▁level	-7543
▁liars	-7544
▁loins	-7545
▁longs	-7546
▁loose	-7547
▁madly	-7548
▁moans	-7549
▁model	-7550
▁mouse	-7551
▁parch	-7552
▁parle	-7553
▁penny	-7554
▁pikes	-7555
▁piled	-7556
▁plate	-7557
▁plays	-7558
▁plebe	-7559
▁ports	-7560
▁posts	-7561
▁prate	-7562
▁prays	-7563
▁privy	-7564
▁quake	-7565
▁raven	-7566
▁relig	-7567
▁repet	-7568
▁rheum	-7569
▁rings	-7570
▁rites	-7571
▁sails	-7572
▁scare	-7573
▁seeks	-7574
▁shade	-7575
▁shift	-7576
▁shine	-7577
▁slack	-7578
▁slide	-7579
▁smelt	-7580
▁sober	-7581
▁space	-7582
▁split	-7583
▁spurs	-7584
▁start	-7585
▁stiff	-7586
▁strat	-7587
▁stray	-7588
▁stuck	-7589
▁swine	-7590
▁tents	-7591
▁theme	-7592
▁tiger	-7593
▁toads	-7594
▁tower	-7595
▁trunk	-7596
▁unfit	-7597
▁unity	-7598
▁unple	-7599
▁upper	-7600
▁usage	-7601
▁using	-7602
▁value	-7603
▁vices	-7604
▁visor	-7605
▁whate	-7606
▁whist	-7607
advised	-7608
arthage	-7609
entious	-7610
forward	-7611
isement	-7612
izabeth	-7613
mblance	-7614
racious	-7615
rateful	-7616
reefold	-7617
resseth	-7618
umbling	-7619
venient	-7620
▁Amazon	-7621
▁Assist	-7622
▁Awaked	-7623
▁Become	-7624
▁Bishop	-7625
▁Calais	-7626
▁Church	-7627
▁Cobham	-7628
▁Commit	-7629
▁Crosby	-7630
▁Cursed	-7631
▁Direct	-7632
▁Europe	-7633
▁Greece	-7634
▁Honest	-7635
▁Julius	-7636
▁Lammas	-7637
▁Ludlow	-7638
▁Philip	-7639
▁Player	-7640
▁Prodig	-7641
▁Renown	-7642
▁Repent	-7643
▁Rescue	-7644
▁Russia	-7645
▁Stands	-7646
▁Things	-7647
▁Throng	-7648
▁Tongue	-7649
▁Twenty	-7650
▁Valent	-7651
▁Virtue	-7652
▁Whence	-7653
▁Yonder	-7654
▁abhorr	-7655
▁acting	-7656
▁adulte	-7657
▁afeard	-7658
▁ambush	-7659
▁ascend	-7660
▁attain	-7661
▁attent	-7662
▁avouch	-7663
▁befits	-7664
▁biting	-7665
▁blasts	-7666
▁bonnet	-7667
▁braved	-7668
▁brazen	-7669
▁broils	-7670
▁burial	-7671
▁busied	-7672
▁bustle	-7673
▁cheers	-7674
▁chides	-7675
▁chival	-7676
▁clergy	-7677
▁closed	-7678
▁colder	-7679
▁coldly	-7680
▁commit	-7681
▁confer	-7682
▁contri	-7683
▁crutch	-7684
▁crying	-7685
▁dainty	-7686
▁dances	-7687
▁darken	-7688
▁darkly	-7689
▁debase	-7690
▁decree	-7691
▁depend	-7692
▁detest	-7693
▁device	-7694
▁diadem	-7695
▁dispro	-7696
▁divers	-7697
▁doings	-7698
▁dragon	-7699
▁dreamt	-7700
▁driven	-7701
▁ducats	-7702
▁easily	-7703
▁elders	-7704
▁enjoin	-7705
▁enjoys	-7706
▁exceed	-7707
▁fathom	-7708
▁fickle	-7709
▁fiends	-7710
▁filthy	-7711
▁firmly	-7712
▁fitted	-7713
▁fitter	-7714
▁flinty	-7715
▁floods	-7716
▁fouler	-7717
▁fourth	-7718
▁graces	-7719
▁gratis	-7720
▁harder	-7721
▁hearth	-7722
▁higher	-7723
▁horror	-7724
▁hounds	-7725
▁hunger	-7726
▁impose	-7727
▁infamy	-7728
▁infirm	-7729
▁landed	-7730
▁levied	-7731
▁lineal	-7732
▁lively	-7733
▁looker	-7734
▁lovers	-7735
▁madest	-7736
▁magist	-7737
▁mantle	-7738
▁mathem	-7739
▁mellow	-7740
▁melted	-7741
▁minded	-7742
▁moment	-7743
▁mutiny	-7744
▁nearer	-7745
▁needle	-7746
▁nettle	-7747
▁nursed	-7748
▁parcel	-7749
▁permit	-7750
▁placed	-7751
▁plaint	-7752
▁plucks	-7753
▁pocket	-7754
▁porter	-7755
▁prefer	-7756
▁prerog	-7757
▁pricks	-7758
▁profan	-7759
▁proofs	-7760
▁purged	-7761
▁purple	-7762
▁purses	-7763
▁rabble	-7764
▁ragged	-7765
▁rarest	-7766
▁region	-7767
▁rehear	-7768
▁relish	-7769
▁remiss	-7770
▁remote	-7771
▁render	-7772
▁resort	-7773
▁revell	-7774
▁revers	-7775
▁rising	-7776
▁safely	-7777
▁scouts	-7778
▁sevent	-7779
▁shamed	-7780
▁sheets	-7781
▁shouts	-7782
▁shower	-7783
▁shrink	-7784
▁silken	-7785
▁sleepy	-7786
▁smiled	-7787
▁soften	-7788
▁solely	-7789
▁starts	-7790
▁strang	-7791
▁streak	-7792
▁stride	-7793
▁string	-7794
▁summon	-7795
▁sunder	-7796
▁supple	-7797
▁suppli	-7798
▁survey	-7799
▁swears	-7800
▁sweets	-7801
▁talked	-7802
▁tatter	-7803
▁tellus	-7804
▁thorns	-7805
▁tinker	-7806
▁titles	-7807
▁tragic	-7808
▁treaty	-7809
▁treble	-7810
▁trudge	-7811
▁tumble	-7812
▁turtle	-7813
▁unruly	-7814
▁unwill	-7815
▁usurer	-7816
▁utmost	-7817
▁vassal	-7818
▁velvet	-7819
▁verity	-7820
▁vigour	-7821
▁vulgar	-7822
▁waning	-7823
▁wasted	-7824
▁watery	-7825
▁widows	-7826
▁wildly	-7827
▁wisest	-7828
▁wishes	-7829
▁wolves	-7830
▁wooers	-7831
▁worser	-7832
▁yellow	-7833
asonable	-7834
changing	-7835
cription	-7836
ervation	-7837
ifferent	-7838
pecially	-7839
stantial	-7840
▁Advance	-7841
▁Amongst	-7842
▁Antonio	-7843
▁Bearing	-7844
▁Beshrew	-7845
▁Brandon	-7846
▁Breathe	-7847
▁Captain	-7848
▁Condemn	-7849
▁Content	-7850
▁Destroy	-7851
▁Dighton	-7852
▁Forbear	-7853
▁Forgive	-7854
▁Forrest	-7855
▁Fortune	-7856
▁Happily	-7857
▁Hostess	-7858
▁Imagine	-7859
▁Mariner	-7860
▁Mercury	-7861
▁Neptune	-7862
▁Prepare	-7863
▁Princes	-7864
▁Prosper	-7865
▁Seeking	-7866
▁Setting	-7867
▁Showing	-7868
▁Valeria	-7869
▁ability	-7870
▁adulter	-7871
▁afflict	-7872
▁appears	-7873
▁appoint	-7874
▁arrival	-7875
▁article	-7876
▁ballads	-7877
▁bashful	-7878
▁beating	-7879
▁beggary	-7880
▁begging	-7881
▁belongs	-7882
▁beshrew	-7883
▁besiege	-7884
▁bewitch	-7885
▁blister	-7886
▁bondage	-7887
▁breasts	-7888
▁briefly	-7889
▁buzzard	-7890
▁calumny	-7891
▁capable	-7892
▁capital	-7893
▁carries	-7894
▁coffers	-7895
▁compell	-7896
▁consuls	-7897
▁continu	-7898
▁contrad	-7899
▁control	-7900
▁convent	-7901
▁convers	-7902
▁corners	-7903
▁council	-7904
▁counted	-7905
▁cousins	-7906
▁crowned	-7907
▁curtain	-7908
▁dangers	-7909
▁dastard	-7910
▁dealing	-7911
▁decrees	-7912
▁deserts	-7913
▁designs	-7914
▁discipl	-7915
▁discred	-7916
▁dismiss	-7917
▁disobed	-7918
▁distill	-7919
▁distrib	-7920
▁disturb	-7921
▁doubted	-7922
▁evident	-7923
▁feeding	-7924
▁fitting	-7925
▁foaming	-7926
▁fooling	-7927
▁footing	-7928
▁footman	-7929
▁forsook	-7930
▁gainsay	-7931
▁glister	-7932
▁glories	-7933
▁gossips	-7934
▁harvest	-7935
▁hatches	-7936
▁haughty	-7937
▁heavily	-7938
▁heinous	-7939
▁helping	-7940
▁highway	-7941
▁hurried	-7942
▁incense	-7943
▁inhabit	-7944
▁injured	-7945
▁inquire	-7946
▁instead	-7947
▁intends	-7948
▁keeping	-7949
▁kissing	-7950
▁kitchen	-7951
▁leaving	-7952
▁lecture	-7953
▁lightly	-7954
▁loathed	-7955
▁longing	-7956
▁loyalty	-7957
▁mangled	-7958
▁manhood	-7959
▁matters	-7960
▁merrily	-7961
▁midwife	-7962
▁mistook	-7963
▁mocking	-7964
▁mustard	-7965
▁natures	-7966
▁nearest	-7967
▁neglect	-7968
▁nightly	-7969
▁notwith	-7970
▁ominous	-7971
▁opening	-7972
▁orchard	-7973
▁orderly	-7974
▁orphans	-7975
▁painful	-7976
▁parents	-7977
▁parlous	-7978
▁partial	-7979
▁parties	-7980
▁pastime	-7981
▁pattern	-7982
▁popular	-7983
▁portion	-7984
▁precise	-7985
▁process	-7986
▁procure	-7987
▁prodigy	-7988
▁proffer	-7989
▁profits	-7990
▁quality	-7991
▁raiment	-7992
▁rancour	-7993
▁receipt	-7994
▁release	-7995
▁returns	-7996
▁rewards	-7997
▁rightly	-7998
▁roaring	-7999
▁robbers	-8000
▁roundly	-8001
▁royally	-8002
▁scholar	-8003
▁scourge	-8004
▁seeking	-8005
▁smoking	-8006
▁solicit	-8007
▁spotted	-8008
▁stripes	-8009
▁studied	-8010
▁suppose	-8011
▁surfeit	-8012
▁surname	-8013
▁sweeten	-8014
▁swifter	-8015
▁swiftly	-8016
▁tainted	-8017
▁tending	-8018
▁thieves	-8019
▁thirsty	-8020
▁throats	-8021
▁tonight	-8022
▁torches	-8023
▁traffic	-8024
▁tribute	-8025
▁undergo	-8026
▁univers	-8027
▁unusual	-8028
▁waiting	-8029
▁weapons	-8030
▁wearing	-8031
▁wenches	-8032
▁western	-8033
▁winding	-8034
▁wishing	-8035
▁wonders	-8036
adventure	-8037
ascivious	-8038
beseeming	-8039
mediately	-8040
pretation	-8041
▁Abhorson	-8042
▁Acquaint	-8043
▁Carlisle	-8044
▁Carthage	-8045
▁Chertsey	-8046
▁Children	-8047
▁Consider	-8048
▁Florizel	-8049
▁Meantime	-8050
▁Patience	-8051
▁Pembroke	-8052
▁Persuade	-8053
▁Phaethon	-8054
▁Proclaim	-8055
▁Ragozine	-8056
▁Scotland	-8057
▁Stafford	-8058
▁Thoughts	-8059
▁Together	-8060
▁achieved	-8061
▁advanced	-8062
▁appeared	-8063
▁argument	-8064
▁aspiring	-8065
▁backward	-8066
▁bastardy	-8067
▁believed	-8068
▁bootless	-8069
▁breathes	-8070
▁breeding	-8071
▁charters	-8072
▁cheerful	-8073
▁choleric	-8074
▁commands	-8075
▁complete	-8076
▁confines	-8077
▁consumed	-8078
▁courtier	-8079
▁criminal	-8080
▁crutches	-8081
▁damnable	-8082
▁daylight	-8083
▁deceased	-8084
▁delights	-8085
▁delivery	-8086
▁despised	-8087
▁detested	-8088
▁disguise	-8089
▁disloyal	-8090
▁disorder	-8091
▁disperse	-8092
▁distingu	-8093
▁drooping	-8094
▁drowning	-8095
▁embraced	-8096
▁enfranch	-8097
▁entering	-8098
▁entrails	-8099
▁exclaims	-8100
▁external	-8101
▁familiar	-8102
▁fashions	-8103
▁fearless	-8104
▁festival	-8105
▁foretell	-8106
▁fretting	-8107
▁frowning	-8108
▁handsome	-8109
▁harmless	-8110
▁inferior	-8111
▁infinite	-8112
▁infringe	-8113
▁instance	-8114
▁interest	-8115
▁jointure	-8116
▁leanness	-8117
▁manacles	-8118
▁marrying	-8119
▁merchant	-8120
▁merciful	-8121
▁mightily	-8122
▁mourning	-8123
▁needless	-8124
▁obdurate	-8125
▁ordering	-8126
▁paradise	-8127
▁peaceful	-8128
▁posterns	-8129
▁prophecy	-8130
▁puissant	-8131
▁quarrell	-8132
▁reckless	-8133
▁relation	-8134
▁remedies	-8135
▁reprieve	-8136
▁required	-8137
▁requital	-8138
▁reserved	-8139
▁respects	-8140
▁restrain	-8141
▁rosemary	-8142
▁security	-8143
▁speeches	-8144
▁stealing	-8145
▁stinking	-8146
▁stooping	-8147
▁swearing	-8148
▁timorous	-8149
▁toucheth	-8150
▁trencher	-8151
▁trenches	-8152
▁triumphs	-8153
▁unawares	-8154
▁unlawful	-8155
▁unrevere	-8156
▁vexation	-8157
▁visiting	-8158
▁warrants	-8159
▁watchful	-8160
▁whoreson	-8161
estershire	-8162
▁Cleomenes	-8163
▁Elizabeth	-8164
▁Fitzwater	-8165
▁Forthwith	-8166
▁Nathaniel	-8167
▁Perchance	-8168
▁Persuades	-8169
▁accompany	-8170
▁amazement	-8171
▁appellant	-8172
▁butterfly	-8173
▁confusion	-8174
▁consented	-8175
▁customary	-8176
▁delivered	-8177
▁disgraced	-8178
▁dissemble	-8179
▁doubtless	-8180
▁elsewhere	-8181
▁emulation	-8182
▁encourage	-8183
▁entreated	-8184
▁expressly	-8185
▁greetings	-8186
▁impatient	-8187
▁injustice	-8188
▁innocency	-8189
▁insinuate	-8190
▁intercept	-8191
▁invention	-8192
▁lightness	-8193
▁malignant	-8194
▁ministers	-8195
▁minstrels	-8196
▁momentary	-8197
▁moveables	-8198
▁murdering	-8199
▁necessary	-8200
▁overthrow	-8201
▁patiently	-8202
▁perchance	-8203
▁petitions	-8204
▁physician	-8205
▁posterity	-8206
▁precedent	-8207
▁preserved	-8208
▁qualities	-8209
▁reckoning	-8210
▁repossess	-8211
▁residence	-8212
▁sacrament	-8213
▁shameless	-8214
▁signories	-8215
▁solemnity	-8216
▁sparkling	-8217
▁strangely	-8218
▁suffering	-8219
▁surprised	-8220
▁temperate	-8221
▁testimony	-8222
▁thousands	-8223
▁threefold	-8224
▁throughly	-8225
▁troublous	-8226
▁unavoided	-8227
▁unwilling	-8228
▁utterance	-8229
▁ARCHBISHOP	-8230
▁Englishman	-8231
▁Willoughby	-8232
▁accomplish	-8233
▁adulteress	-8234
▁advertised	-8235
▁apothecary	-8236
▁approaches	-8237
▁cheerfully	-8238
▁commanding	-8239
▁complexion	-8240
▁correction	-8241
▁corruption	-8242
▁countryman	-8243
▁degenerate	-8244
▁discharged	-8245
▁discretion	-8246
▁effeminate	-8247
▁forefather	-8248
▁impediment	-8249
▁imposition	-8250
▁inconstant	-8251
▁knighthood	-8252
▁lineaments	-8253
▁marvellous	-8254
▁meditation	-8255
▁occupation	-8256
▁physicians	-8257
▁profession	-8258
▁pronounced	-8259
▁punishment	-8260
▁repetition	-8261
▁sisterhood	-8262
▁speechless	-8263
▁stratagems	-8264
▁strengthen	-8265
▁submission	-8266
▁unpleasing	-8267
▁unprovided	-8268
▁worshipful	-8269
▁wrongfully	-8270
▁acknowledge	-8271
▁confederate	-8272
▁controversy	-8273
▁deliverance	-8274
▁desperately	-8275
▁destruction	-8276
▁displeasure	-8277
▁enforcement	-8278
▁grandfather	-8279
▁indifferent	-8280
▁mathematics	-8281
▁necessities	-8282
▁nightingale	-8283
▁preparation	-8284
▁prerogative	-8285
▁transported	-8286
▁acquaintance	-8287
▁disinherited	-8288
▁embracements	-8289
▁lamentations	-8290
▁preposterous	-8291
▁schoolmaster	-8292
▁understanding	-8293
▁notwithstanding	-8294
OPH	-8295
bya	-8296
cup	-8297
ddy	-8298
ASUR	-8299
nib	-8300
AUGH	-8301
Stay	-8302
acre	-8303
boys	-8304
butt	-8305
comb	-8306
cote	-8307
duce	-8308
flow	-8309
gued	-8310
ipod	-8311
join	-8312
mmer	-8313
mphs	-8314
ocks	-8315
opsa	-8316
phin	-8317
scri	-8318
tico	-8319
tino	-8320
upid	-8321
upon	-8322
▁Ado	-8323
▁Alb	-8324
▁Dev	-8325
▁Emb	-8326
▁Seb	-8327
▁Unc	-8328
▁egg	-8329
▁err	-8330
▁ivy	-8331
▁obs	-8332
▁wip	-8333
▁yew	-8334
ASURE	-8335
Faith	-8336
KELEY	-8337
OPHER	-8338
agued	-8339
althi	-8340
asque	-8341
avius	-8342
begot	-8343
chets	-8344
doing	-8345
eapol	-8346
erily	-8347
ersey	-8348
etchy	-8349
guish	-8350
hapen	-8351
iency	-8352
illyv	-8353
inary	-8354
ipher	-8355
ishes	-8356
kerel	-8357
lycus	-8358
maids	-8359
maker	-8360
mouth	-8361
music	-8362
odils	-8363
oriol	-8364
orpor	-8365
ounts	-8366
prise	-8367
proud	-8368
raham	-8369
raybe	-8370
rowsy	-8371
sheet	-8372
suing	-8373
ucing	-8374
umbly	-8375
umult	-8376
utumn	-8377
ville	-8378
ybalt	-8379
▁Arch	-8380
▁Deny	-8381
▁Deuc	-8382
▁Echo	-8383
▁Grim	-8384
▁Holy	-8385
▁Juno	-8386
▁Next	-8387
▁Requ	-8388
▁Seal	-8389
▁Sham	-8390
▁Stop	-8391
▁Trem	-8392
▁Wash	-8393
▁Wipe	-8394
▁bits	-8395
▁boat	-8396
▁buds	-8397
▁camp	-8398
▁corp	-8399
HRI	-8400
fts	-8401
fty	-8402
mock	-8403
▁Jud	-8404
▁cog	-8405
▁cox	-8406
▁coz	-8407
HRIST	-8408
Whoop	-8409
aterp	-8410
cloth	-8411
herds	-8412
itied	-8413
onted	-8414
ossed	-8415
usale	-8416
▁Bret	-8417
▁Incl	-8418
▁Plas	-8419
▁Pret	-8420
▁Simo	-8421
▁coin	-8422
▁cott	-8423
▁crot	-8424
▁cuff	-8425
▁daff	-8426
▁dial	-8427
▁dirt	-8428
▁eats	-8429
▁echo	-8430
▁fert	-8431
▁fidd	-8432
▁fitt	-8433
▁gale	-8434
▁gamb	-8435
▁gasp	-8436
▁grew	-8437
▁grin	-8438
▁hild	-8439
▁hugg	-8440
▁idly	-8441
▁infl	-8442
▁irks	-8443
▁kenn	-8444
▁lamp	-8445
▁lane	-8446
▁magn	-8447
▁medd	-8448
▁musc	-8449
▁nodd	-8450
▁nuts	-8451
▁obli	-8452
▁pals	-8453
▁park	-8454
▁prig	-8455
▁pump	-8456
▁punk	-8457
▁purp	-8458
▁rags	-8459
▁refu	-8460
▁ribs	-8461
▁rift	-8462
▁runn	-8463
▁skin	-8464
▁surm	-8465
▁symp	-8466
▁tape	-8467
▁type	-8468
▁unex	-8469
▁untr	-8470
▁vehe	-8471
▁void	-8472
▁waft	-8473
▁wool	-8474
Coriol	-8475
EASURE	-8476
Verily	-8477
acheth	-8478
adders	-8479
apping	-8480
arling	-8481
ashion	-8482
asping	-8483
atiate	-8484
avoury	-8485
boding	-8486
cember	-8487
cepter	-8488
ckerel	-8489
decess	-8490
ements	-8491
erween	-8492
eterat	-8493
footed	-8494
heriff	-8495
ianced	-8496
illars	-8497
illius	-8498
inster	-8499
UNT	-8500
INAL	-8501
LUNT	-8502
RANC	-8503
amps	-8504
chel	-8505
ebus	-8506
hyme	-8507
pery	-8508
rang	-8509
suck	-8510
▁rum	-8511
▁sip	-8512
MILIA	-8513
asite	-8514
chess	-8515
chest	-8516
hanks	-8517
ivant	-8518
match	-8519
meant	-8520
oison	-8521
perly	-8522
press	-8523
range	-8524
rants	-8525
ridge	-8526
▁Fran	-8527
▁Kiss	-8528
▁ache	-8529
▁adds	-8530
▁asks	-8531
▁bier	-8532
▁diff	-8533
▁flee	-8534
▁pile	-8535
▁rite	-8536
▁rubs	-8537
▁verd	-8538
Thanks	-8539
chelor	-8540
ection	-8541
hoebus	-8542
iction	-8543
ipodes	-8544
ithmet	-8545
lected	-8546
mongst	-8547
oorest	-8548
otions	-8549
ourses	-8550
pected	-8551
rolled	-8552
roying	-8553
ruised	-8554
shapen	-8555
spoken	-8556
spring	-8557
stones	-8558
therea	-8559
thwack	-8560
thwart	-8561
ticoat	-8562
twenty	-8563
uction	-8564
ueless	-8565
usalem	-8566
utiful	-8567
▁Abate	-8568
▁Allow	-8569
▁BLUNT	-8570
▁Below	-8571
▁Black	-8572
▁Blind	-8573
▁Bliss	-8574
▁Blunt	-8575
▁Brief	-8576
▁Drawn	-8577
▁Envir	-8578
▁FRANC	-8579
▁Flore	-8580
▁Franc	-8581
▁Given	-8582
▁Grief	-8583
▁Haply	-8584
▁Helen	-8585
▁Laugh	-8586
▁Loved	-8587
▁Mopsa	-8588
▁Overd	-8589
▁POMPH	-8590
▁Plain	-8591
▁Pluck	-8592
▁Priam	-8593
▁Provo	-8594
▁Roger	-8595
▁Seize	-8596
▁Sleep	-8597
▁Sorry	-8598
▁Susan	-8599
aby	-8600
aph	-8601
naw	-8602
Hold	-8603
agab	-8604
apes	-8605
tide	-8606
umps	-8607
vels	-8608
▁map	-8609
abour	-8610
icide	-8611
izard	-8612
lause	-8613
liest	-8614
reder	-8615
three	-8616
uckle	-8617
▁Dull	-8618
▁apes	-8619
▁begs	-8620
▁bitt	-8621
▁chur	-8622
▁clip	-8623
▁cull	-8624
▁pren	-8625
▁unsk	-8626
astery	-8627
astian	-8628
ctable	-8629
orable	-8630
▁Prick	-8631
▁Tears	-8632
▁Threw	-8633
▁Trait	-8634
▁Trans	-8635
▁Tread	-8636
▁Trust	-8637
▁Unshe	-8638
▁Varri	-8639
▁White	-8640
▁Worth	-8641
▁Wrong	-8642
▁actor	-8643
▁added	-8644
▁afoot	-8645
▁agony	-8646
▁angle	-8647
▁annoy	-8648
▁asked	-8649
▁avail	-8650
▁baked	-8651
▁barne	-8652
▁bawdy	-8653
▁belie	-8654
▁bells	-8655
▁bites	-8656
▁blank	-8657
▁bloss	-8658
▁bonds	-8659
▁broil	-8660
▁canop	-8661
▁cavil	-8662
▁chaos	-8663
▁cheat	-8664
▁chose	-8665
▁churl	-8666
▁clime	-8667
▁coral	-8668
▁covet	-8669
▁cryst	-8670
▁cured	-8671
▁curfe	-8672
▁dally	-8673
▁darts	-8674
▁dates	-8675
▁disco	-8676
▁dregs	-8677
▁drive	-8678
▁dropp	-8679
▁drugs	-8680
▁duell	-8681
▁envir	-8682
▁expir	-8683
▁extol	-8684
▁famed	-8685
▁fined	-8686
▁fours	-8687
▁games	-8688
▁gapes	-8689
▁gazed	-8690
▁greyh	-8691
▁grove	-8692
▁gusts	-8693
▁hairs	-8694
▁hardy	-8695
▁harms	-8696
▁heaps	-8697
▁horns	-8698
▁hurts	-8699
bre	-8700
pur	-8701
uft	-8702
bery	-8703
body	-8704
disp	-8705
ilty	-8706
ulch	-8707
▁Uly	-8708
▁Vis	-8709
▁esp	-8710
▁ram	-8711
▁wra	-8712
hings	-8713
oughs	-8714
urned	-8715
▁Base	-8716
▁Bore	-8717
▁Free	-8718
▁Iron	-8719
▁arts	-8720
▁barb	-8721
▁biss	-8722
▁doff	-8723
▁fade	-8724
▁flag	-8725
▁heal	-8726
▁rapt	-8727
▁stee	-8728
▁tuft	-8729
▁twig	-8730
▁twin	-8731
abouts	-8732
ashing	-8733
berate	-8734
inctly	-8735
thrown	-8736
ulchre	-8737
urnish	-8738
▁Kings	-8739
▁Learn	-8740
▁Lives	-8741
▁Proud	-8742
▁Scorn	-8743
▁Ulyss	-8744
▁Visit	-8745
▁ample	-8746
▁anyth	-8747
▁assay	-8748
▁doers	-8749
▁ensue	-8750
▁flout	-8751
▁gamut	-8752
▁immod	-8753
▁infid	-8754
▁influ	-8755
▁jaunt	-8756
▁jolly	-8757
▁lacks	-8758
▁lends	-8759
▁limed	-8760
▁linen	-8761
▁masks	-8762
▁masqu	-8763
▁metho	-8764
▁minim	-8765
▁moons	-8766
▁muddy	-8767
▁murde	-8768
▁necks	-8769
▁needy	-8770
▁niece	-8771
▁ocean	-8772
▁ordin	-8773
▁pedig	-8774
▁penet	-8775
▁perch	-8776
▁pines	-8777
▁plots	-8778
▁poets	-8779
▁polit	-8780
▁proli	-8781
▁purbl	-8782
▁raged	-8783
▁rages	-8784
▁ranks	-8785
▁rates	-8786
▁rayed	-8787
▁refle	-8788
▁reins	-8789
▁rider	-8790
▁rocky	-8791
▁sacri	-8792
▁safer	-8793
▁scarr	-8794
▁scars	-8795
▁secre	-8796
▁seeds	-8797
▁senis	-8798
▁shipp	-8799
aub	-8800
bon	-8801
hra	-8802
jud	-8803
ney	-8804
pts	-8805
rav	-8806
rid	-8807
▁ib	-8808
dent	-8809
hery	-8810
hill	-8811
lead	-8812
mend	-8813
only	-8814
poss	-8815
reen	-8816
roop	-8817
stly	-8818
uman	-8819
▁Fer	-8820
▁Gro	-8821
▁Pot	-8822
▁Pra	-8823
▁dom	-8824
▁pry	-8825
▁sol	-8826
▁sty	-8827
elier	-8828
hrase	-8829
human	-8830
icing	-8831
inent	-8832
stent	-8833
▁Dick	-8834
▁Potp	-8835
▁Self	-8836
▁Went	-8837
▁Wood	-8838
▁dimm	-8839
▁dive	-8840
▁ibat	-8841
▁meek	-8842
▁puny	-8843
▁rein	-8844
▁soar	-8845
▁sops	-8846
echery	-8847
enious	-8848
esture	-8849
hastly	-8850
lehill	-8851
rimony	-8852
▁Archb	-8853
▁False	-8854
▁Libya	-8855
▁Westm	-8856
▁apple	-8857
▁bandy	-8858
▁clerk	-8859
▁earls	-8860
▁flour	-8861
▁hills	-8862
▁impud	-8863
▁leash	-8864
▁renew	-8865
▁seats	-8866
▁shock	-8867
▁shoot	-8868
▁shuts	-8869
▁simpl	-8870
▁skins	-8871
▁smack	-8872
▁songs	-8873
▁splin	-8874
▁stair	-8875
▁steer	-8876
▁stint	-8877
▁stole	-8878
▁surly	-8879
▁swept	-8880
▁talks	-8881
▁tardy	-8882
▁tenor	-8883
▁threw	-8884
▁tides	-8885
▁tires	-8886
▁track	-8887
▁tunes	-8888
▁twink	-8889
▁unacc	-8890
▁undes	-8891
▁unwho	-8892
▁vanqu	-8893
▁viper	-8894
▁waded	-8895
▁waist	-8896
▁walks	-8897
▁weeks	-8898
▁whipt	-8899
kn	-8900
ese	-8901
iry	-8902
ugh	-8903
▁Pe	-8904
▁el	-8905
▁ep	-8906
▁gy	-8907
ITUS	-8908
days	-8909
eese	-8910
itud	-8911
late	-8912
look	-8913
ooch	-8914
uted	-8915
▁Cat	-8916
▁Oly	-8917
▁cro	-8918
▁dil	-8919
▁fed	-8920
▁fut	-8921
▁vio	-8922
agion	-8923
olour	-8924
onour	-8925
▁Cour	-8926
▁Cull	-8927
▁Hugh	-8928
▁Laid	-8929
▁Nine	-8930
▁Sure	-8931
▁curb	-8932
▁dugs	-8933
▁epit	-8934
▁eyeb	-8935
▁forl	-8936
▁malc	-8937
▁peri	-8938
▁Delay	-8939
▁Every	-8940
▁Kates	-8941
▁Olymp	-8942
▁Shake	-8943
▁TITUS	-8944
▁Tutor	-8945
▁abode	-8946
▁cropp	-8947
▁dilig	-8948
▁drain	-8949
▁draws	-8950
▁falch	-8951
▁geese	-8952
▁gyves	-8953
▁mispl	-8954
▁smock	-8955
▁torto	-8956
▁unsus	-8957
▁wormw	-8958
▁wrapt	-8959
▁wreak	-8960
▁wring	-8961
ARDINAL	-8962
ERKELEY	-8963
aculate	-8964
agabond	-8965
althily	-8966
antages	-8967
arallel	-8968
arewell	-8969
atesman	-8970
attling	-8971
cession	-8972
emember	-8973
erwhelm	-8974
fellows	-8975
heasant	-8976
ictment	-8977
igation	-8978
ilities	-8979
ineyard	-8980
iolable	-8981
ishment	-8982
itively	-8983
landers	-8984
longeth	-8985
masters	-8986
missive	-8987
odpiece	-8988
ondrous	-8989
onition	-8990
outhern	-8991
pecting	-8992
portion	-8993
reading	-8994
rection	-8995
righted	-8996
running	-8997
ucation	-8998
ucement	-8999
gom	-9000
lay	-9001
reg	-9002
atin	-9003
gent	-9004
utor	-9005
▁Inf	-9006
▁Pil	-9007
▁Win	-9008
▁bal	-9009
▁dot	-9010
▁haw	-9011
▁nep	-9012
▁pea	-9013
Bless	-9014
bered	-9015
goose	-9016
isons	-9017
orner	-9018
otent	-9019
round	-9020
▁Holl	-9021
▁Safe	-9022
▁Sirs	-9023
▁Spur	-9024
▁ally	-9025
▁cape	-9026
▁hoot	-9027
▁muse	-9028
▁owed	-9029
▁pith	-9030
▁pror	-9031
▁triv	-9032
atrice	-9033
corner	-9034
gomery	-9035
pherds	-9036
▁Brave	-9037
▁Chide	-9038
▁Holla	-9039
▁Latin	-9040
▁Shame	-9041
▁Stays	-9042
▁brake	-9043
▁coats	-9044
▁kills	-9045
▁nephe	-9046
▁proro	-9047
▁score	-9048
▁thres	-9049
deliver	-9050
ificial	-9051
reation	-9052
unction	-9053
velling	-9054
vouring	-9055
wearied	-9056
▁Accept	-9057
▁Adding	-9058
▁Adrian	-9059
▁Albion	-9060
▁Ascend	-9061
▁Banish	-9062
▁Barnet	-9063
▁Behind	-9064
▁Boldly	-9065
▁CHRIST	-9066
▁Castle	-9067
▁Darest	-9068
▁Desire	-9069
▁Divine	-9070
▁EMILIA	-9071
▁Errone	-9072
▁Forced	-9073
▁Forget	-9074
▁Freder	-9075
▁Golden	-9076
▁Matter	-9077
▁Namely	-9078
▁Neapol	-9079
▁Neighb	-9080
▁Plashy	-9081
▁Potpan	-9082
▁Reason	-9083
▁Rebell	-9084
▁Relent	-9085
▁Resign	-9086
▁Reward	-9087
▁Scurvy	-9088
▁Seeing	-9089
▁Sicils	-9090
▁Simois	-9091
▁Softly	-9092
▁Sorrow	-9093
▁Strive	-9094
▁Twelve	-9095
▁Withal	-9096
▁abomin	-9097
▁abuses	-9098
▁accent	-9099
ux	-9100
ait	-9101
erb	-9102
▁fu	-9103
When	-9104
awds	-9105
cont	-9106
door	-9107
gher	-9108
inci	-9109
ixed	-9110
lloa	-9111
▁Cut	-9112
▁Sad	-9113
▁Sed	-9114
▁ant	-9115
▁aus	-9116
▁dug	-9117
▁jay	-9118
assad	-9119
hoods	-9120
owder	-9121
would	-9122
▁Ethi	-9123
▁Mere	-9124
▁Quit	-9125
▁bind	-9126
▁conn	-9127
▁fuel	-9128
▁hiss	-9129
▁sped	-9130
▁sums	-9131
▁twos	-9132
▁wors	-9133
active	-9134
erbear	-9135
remacy	-9136
volous	-9137
▁House	-9138
▁bower	-9139
▁gripe	-9140
▁hides	-9141
▁hoard	-9142
▁incur	-9143
▁jades	-9144
▁mista	-9145
▁obliv	-9146
▁spawn	-9147
ertaint	-9148
olation	-9149
▁Honour	-9150
▁Merely	-9151
▁Pretty	-9152
▁Sigeia	-9153
▁acquit	-9154
▁admire	-9155
▁alarum	-9156
▁argosy	-9157
▁argued	-9158
▁argues	-9159
▁assemb	-9160
▁autumn	-9161
▁awaken	-9162
▁babies	-9163
▁baited	-9164
▁barber	-9165
▁basely	-9166
▁beards	-9167
▁befell	-9168
▁bestir	-9169
▁betake	-9170
▁bewray	-9171
▁births	-9172
▁bisson	-9173
▁blench	-9174
▁blocks	-9175
▁bolder	-9176
▁bolted	-9177
▁bottle	-9178
▁branch	-9179
▁brawls	-9180
▁breech	-9181
▁bridle	-9182
▁brooch	-9183
▁brooks	-9184
▁cannib	-9185
▁career	-9186
▁carved	-9187
▁casque	-9188
▁caterp	-9189
▁causer	-9190
▁charms	-9191
▁chests	-9192
▁choked	-9193
▁cities	-9194
▁cleave	-9195
▁clothe	-9196
▁clutch	-9197
▁compet	-9198
▁confli	-9199
Lo	-9200
My	-9201
co	-9202
ev	-9203
ns	-9204
xy	-9205
yr	-9206
ONA	-9207
Sir	-9208
gam	-9209
nut	-9210
ora	-9211
Thou	-9212
alls	-9213
aths	-9214
bary	-9215
harm	-9216
heir	-9217
lain	-9218
resh	-9219
test	-9220
▁Dig	-9221
▁Fan	-9222
▁Hoo	-9223
▁Led	-9224
▁Man	-9225
▁Unf	-9226
▁lit	-9227
anied	-9228
eling	-9229
eries	-9230
imble	-9231
mercy	-9232
stain	-9233
▁BONA	-9234
▁Rain	-9235
▁Sith	-9236
▁acre	-9237
▁beam	-9238
▁beet	-9239
▁bemo	-9240
▁dawn	-9241
▁inve	-9242
▁lime	-9243
▁moth	-9244
▁nuns	-9245
▁orat	-9246
AUGHAN	-9247
Zounds	-9248
almsey	-9249
arbary	-9250
▁Cupid	-9251
▁James	-9252
▁Sland	-9253
▁Spare	-9254
▁apply	-9255
▁awful	-9256
▁banns	-9257
▁brawl	-9258
▁glove	-9259
▁spell	-9260
▁Except	-9261
▁Wrench	-9262
▁carver	-9263
▁closet	-9264
▁courts	-9265
▁cradle	-9266
▁cramps	-9267
▁crimes	-9268
▁daring	-9269
▁denies	-9270
▁desper	-9271
▁digest	-9272
▁dishes	-9273
▁divide	-9274
▁dotard	-9275
▁doting	-9276
▁doubly	-9277
▁drowsy	-9278
▁drudge	-9279
▁eagles	-9280
▁eating	-9281
▁encamp	-9282
▁engine	-9283
▁ensign	-9284
▁entail	-9285
▁enters	-9286
▁entire	-9287
▁events	-9288
▁fabric	-9289
▁falter	-9290
▁farmer	-9291
▁faster	-9292
▁feasts	-9293
▁featly	-9294
▁feeble	-9295
▁finely	-9296
▁finish	-9297
▁fleece	-9298
▁fliers	-9299
Al	-9300
No	-9301
ii	-9302
ob	-9303
din	-9304
hur	-9305
tri	-9306
war	-9307
▁ny	-9308
Alas	-9309
cked	-9310
gier	-9311
rons	-9312
rors	-9313
shot	-9314
stit	-9315
▁Dou	-9316
▁Ear	-9317
▁pox	-9318
▁unv	-9319
▁web	-9320
heads	-9321
lings	-9322
rings	-9323
roses	-9324
swoln	-9325
uring	-9326
verns	-9327
▁Auto	-9328
▁Fore	-9329
▁beck	-9330
▁subs	-9331
alties	-9332
piracy	-9333
scribe	-9334
▁Earth	-9335
▁Jacks	-9336
▁Quick	-9337
▁baits	-9338
▁canon	-9339
▁deign	-9340
▁hound	-9341
▁rever	-9342
▁spray	-9343
▁suret	-9344
▁tales	-9345
ittance	-9346
keeping	-9347
▁Argier	-9348
▁Flower	-9349
▁Hallow	-9350
▁Poison	-9351
▁Temper	-9352
▁flying	-9353
▁forged	-9354
▁forges	-9355
▁framed	-9356
▁freeze	-9357
▁fruits	-9358
▁fulfil	-9359
▁furred	-9360
▁future	-9361
▁galled	-9362
▁garlic	-9363
▁garter	-9364
▁gavest	-9365
▁gilded	-9366
▁glance	-9367
▁gotten	-9368
▁grains	-9369
▁grants	-9370
▁graver	-9371
▁groats	-9372
▁grudge	-9373
▁guards	-9374
▁guides	-9375
▁hammer	-9376
▁haunts	-9377
▁heated	-9378
▁helped	-9379
▁hereof	-9380
▁highly	-9381
▁hoarse	-9382
▁homage	-9383
▁hourly	-9384
▁humane	-9385
▁images	-9386
▁impute	-9387
▁indign	-9388
▁infall	-9389
▁inside	-9390
▁interr	-9391
▁invest	-9392
▁invite	-9393
▁issued	-9394
▁jewels	-9395
▁justly	-9396
▁kersey	-9397
▁kindle	-9398
▁lackey	-9399
Be	-9400
▁:	-9401
add	-9402
arr	-9403
erp	-9404
how	-9405
ids	-9406
zes	-9407
▁Bu	-9408
▁eg	-9409
beat	-9410
eigh	-9411
eing	-9412
gage	-9413
gone	-9414
imer	-9415
rion	-9416
wind	-9417
▁Die	-9418
▁Ped	-9419
▁hab	-9420
▁hew	-9421
▁kna	-9422
▁mor	-9423
▁pir	-9424
erman	-9425
harge	-9426
journ	-9427
uming	-9428
▁Held	-9429
▁Luke	-9430
▁Rise	-9431
▁ague	-9432
▁bled	-9433
▁disb	-9434
▁eggs	-9435
▁hole	-9436
▁hook	-9437
▁lain	-9438
▁poet	-9439
▁rope	-9440
▁tore	-9441
Charge	-9442
Tybalt	-9443
aining	-9444
emaker	-9445
gentle	-9446
▁Blood	-9447
▁Draws	-9448
▁Taste	-9449
▁Wrath	-9450
▁daunt	-9451
▁fawns	-9452
▁pence	-9453
▁quest	-9454
▁smear	-9455
ortimer	-9456
▁Little	-9457
▁Repair	-9458
▁Spread	-9459
▁assign	-9460
▁canopy	-9461
▁celebr	-9462
▁formal	-9463
▁handle	-9464
▁lances	-9465
▁lastly	-9466
▁leader	-9467
▁lessen	-9468
▁lesson	-9469
▁liquor	-9470
▁listen	-9471
▁litter	-9472
▁losing	-9473
▁losses	-9474
▁louder	-9475
▁loveth	-9476
▁lowest	-9477
▁madmen	-9478
▁malady	-9479
▁medlar	-9480
▁menace	-9481
▁mended	-9482
▁merits	-9483
▁method	-9484
▁mettle	-9485
▁mildly	-9486
▁mingle	-9487
▁morsel	-9488
▁motive	-9489
▁muffle	-9490
▁mutton	-9491
▁neglig	-9492
▁nicely	-9493
▁nimbly	-9494
▁novice	-9495
▁observ	-9496
▁oppose	-9497
▁orange	-9498
▁ostent	-9499
Yea	-9500
eaf	-9501
hic	-9502
ipt	-9503
joy	-9504
orc	-9505
poc	-9506
whe	-9507
▁Es	-9508
cell	-9509
gess	-9510
ifle	-9511
this	-9512
west	-9513
▁Day	-9514
▁Dre	-9515
▁Fam	-9516
▁Joy	-9517
▁Opp	-9518
▁Sea	-9519
▁sel	-9520
▁sex	-9521
▁tot	-9522
cence	-9523
erate	-9524
fered	-9525
inest	-9526
isted	-9527
ously	-9528
resoe	-9529
▁Bare	-9530
▁Best	-9531
▁Dion	-9532
▁Just	-9533
▁Note	-9534
▁Sout	-9535
▁Vile	-9536
▁cloy	-9537
▁dews	-9538
▁hent	-9539
anched	-9540
silver	-9541
▁choke	-9542
▁cleft	-9543
▁hypoc	-9544
▁range	-9545
▁repro	-9546
▁stirs	-9547
▁tribe	-9548
▁twigs	-9549
▁usest	-9550
▁wiser	-9551
▁Profan	-9552
▁allies	-9553
▁attach	-9554
▁chants	-9555
▁cipher	-9556
▁curfew	-9557
▁encomp	-9558
▁liquid	-9559
▁packth	-9560
▁parley	-9561
▁passes	-9562
▁paying	-9563
▁penury	-9564
▁period	-9565
▁phrase	-9566
▁pieced	-9567
▁pillow	-9568
▁pities	-9569
▁planet	-9570
▁poetry	-9571
▁ponder	-9572
▁potent	-9573
▁potion	-9574
▁presag	-9575
▁presum	-9576
▁prolix	-9577
▁purity	-9578
▁rankle	-9579
▁rashly	-9580
▁reduce	-9581
▁refuge	-9582
▁regent	-9583
▁relent	-9584
▁repaid	-9585
▁replen	-9586
▁richer	-9587
▁riddle	-9588
▁ridges	-9589
▁ripest	-9590
▁roared	-9591
▁robbed	-9592
▁rogues	-9593
▁rooted	-9594
▁rounds	-9595
▁rudely	-9596
▁sacrif	-9597
▁saddle	-9598
▁sailor	-9599
We	-9600
qua	-9601
▁Sk	-9602
crow	-9603
fast	-9604
gars	-9605
hank	-9606
heth	-9607
mark	-9608
quer	-9609
thou	-9610
▁Mam	-9611
▁mam	-9612
▁oil	-9613
▁orb	-9614
▁pul	-9615
▁roe	-9616
▁tar	-9617
aucas	-9618
cures	-9619
death	-9620
heart	-9621
onday	-9622
oused	-9623
using	-9624
▁Fast	-9625
▁Last	-9626
▁Wear	-9627
▁aqua	-9628
▁bede	-9629
▁chin	-9630
▁coil	-9631
▁conv	-9632
▁fork	-9633
▁fust	-9634
▁heap	-9635
▁inex	-9636
▁jars	-9637
▁mart	-9638
▁ruff	-9639
▁shin	-9640
▁wive	-9641
anting	-9642
ension	-9643
isheth	-9644
monger	-9645
vocate	-9646
▁bench	-9647
▁blasp	-9648
▁fitly	-9649
▁fling	-9650
▁holes	-9651
▁prenz	-9652
▁spear	-9653
itution	-9654
▁Monday	-9655
▁candle	-9656
▁finest	-9657
▁greets	-9658
▁indust	-9659
▁kennel	-9660
▁latter	-9661
▁saving	-9662
▁savour	-9663
▁sayest	-9664
▁scathe	-9665
▁sedges	-9666
▁seemed	-9667
▁selves	-9668
▁shamef	-9669
▁shriek	-9670
▁sickly	-9671
▁sinews	-9672
▁sinful	-9673
▁sleeve	-9674
▁slower	-9675
▁smells	-9676
▁softly	-9677
▁solace	-9678
▁sparks	-9679
▁spoils	-9680
▁sprung	-9681
▁square	-9682
▁stains	-9683
▁stamps	-9684
▁stings	-9685
▁stirru	-9686
▁strain	-9687
▁strife	-9688
▁suborn	-9689
▁sunset	-9690
▁swells	-9691
▁tables	-9692
▁taming	-9693
▁target	-9694
▁territ	-9695
▁thrall	-9696
▁throws	-9697
▁thwack	-9698
▁tigers	-9699
LL	-9700
'--	-9701
can	-9702
fig	-9703
ifs	-9704
▁--	-9705
▁Sn	-9706
bout	-9707
erry	-9708
fond	-9709
keep	-9710
lars	-9711
seem	-9712
unis	-9713
vity	-9714
▁ALL	-9715
▁Dry	-9716
▁der	-9717
▁dul	-9718
▁ire	-9719
▁nut	-9720
▁rav	-9721
▁swo	-9722
celsa	-9723
endom	-9724
heres	-9725
inded	-9726
pence	-9727
score	-9728
▁Dogs	-9729
▁Done	-9730
▁Fine	-9731
▁bate	-9732
▁bone	-9733
▁bout	-9734
▁cony	-9735
▁digg	-9736
▁dump	-9737
▁nurs	-9738
▁peep	-9739
▁pond	-9740
▁pout	-9741
▁rice	-9742
aching	-9743
auphin	-9744
ledged	-9745
minded	-9746
ortive	-9747
▁Force	-9748
▁Tunis	-9749
▁aband	-9750
▁brood	-9751
▁hates	-9752
▁ounce	-9753
▁plent	-9754
▁prone	-9755
▁salve	-9756
▁scale	-9757
seeming	-9758
▁Hacket	-9759
▁Notice	-9760
▁blanks	-9761
▁detect	-9762
▁disfig	-9763
▁doubts	-9764
▁ladder	-9765
▁sheath	-9766
▁thorny	-9767
▁tokens	-9768
▁traged	-9769
▁transg	-9770
▁treads	-9771
▁tumult	-9772
▁unable	-9773
▁uneasy	-9774
▁uneven	-9775
▁unfelt	-9776
▁unfort	-9777
▁unhall	-9778
▁unhapp	-9779
▁unluck	-9780
▁unposs	-9781
▁unsway	-9782
▁urging	-9783
▁utters	-9784
▁vanish	-9785
▁verily	-9786
▁villan	-9787
▁violet	-9788
▁visits	-9789
▁volume	-9790
▁weaker	-9791
▁welkin	-9792
▁wheels	-9793
▁wilder	-9794
▁wilful	-9795
▁willow	-9796
▁writes	-9797
Citizens	-9798
Remember	-9799
dex	-9800
igm	-9801
mak	-9802
nel	-9803
why	-9804
cian	-9805
dish	-9806
itae	-9807
once	-9808
onst	-9809
pile	-9810
pper	-9811
seed	-9812
unch	-9813
▁Ask	-9814
▁Ing	-9815
▁Jer	-9816
▁cel	-9817
▁fel	-9818
▁sap	-9819
idity	-9820
inies	-9821
itary	-9822
locks	-9823
manly	-9824
utish	-9825
▁Drop	-9826
▁Lift	-9827
▁List	-9828
▁Pity	-9829
▁dall	-9830
▁foem	-9831
▁hood	-9832
▁lure	-9833
▁pref	-9834
▁rung	-9835
▁stew	-9836
ierced	-9837
ixture	-9838
makers	-9839
▁Negle	-9840
▁Stabb	-9841
▁Stirr	-9842
▁Vince	-9843
▁Weigh	-9844
▁deity	-9845
▁domin	-9846
▁drove	-9847
▁flung	-9848
▁index	-9849
▁spies	-9850
▁Taking	-9851
▁Unfold	-9852
▁abound	-9853
▁became	-9854
▁bloods	-9855
▁buckle	-9856
▁cracks	-9857
▁drinks	-9858
▁flayed	-9859
▁gillyv	-9860
▁nephew	-9861
▁prover	-9862
▁proves	-9863
▁submit	-9864
ershades	-9865
ithmetic	-9866
kerchief	-9867
moreland	-9868
olerable	-9869
orporate	-9870
peakable	-9871
ratitude	-9872
regnable	-9873
ubbering	-9874
▁AEdiles	-9875
▁Abraham	-9876
▁Account	-9877
▁Barbary	-9878
▁Betwixt	-9879
▁Brought	-9880
▁Cheerly	-9881
▁Consort	-9882
▁Culling	-9883
▁Deserve	-9884
▁Despite	-9885
▁Dismiss	-9886
▁Dispose	-9887
▁Emperor	-9888
▁Endured	-9889
▁Enforce	-9890
▁Falsely	-9891
▁Fellows	-9892
▁Flatter	-9893
▁Flavius	-9894
▁Forward	-9895
▁Heavens	-9896
▁Herbert	-9897
▁Hungary	-9898
▁Inquire	-9899
MEN	-9900
Have	-9901
▁Bro	-9902
▁Cot	-9903
▁Inc	-9904
▁coy	-9905
▁lag	-9906
atisf	-9907
cipal	-9908
uding	-9909
vener	-9910
▁Inst	-9911
▁Pass	-9912
▁abst	-9913
▁lave	-9914
▁outd	-9915
▁pies	-9916
▁Inter	-9917
▁Troth	-9918
▁cedar	-9919
▁clubs	-9920
▁curds	-9921
▁hears	-9922
▁liver	-9923
▁Almost	-9924
▁Became	-9925
▁factor	-9926
▁precip	-9927
▁sprang	-9928
▁Intends	-9929
▁Killing	-9930
▁Knowing	-9931
▁Letters	-9932
▁Looking	-9933
▁MEASURE	-9934
▁Meaning	-9935
▁Nightly	-9936
▁POMPHEY	-9937
▁Phoebus	-9938
▁Present	-9939
▁Procure	-9940
▁Profess	-9941
▁Receive	-9942
▁Resolve	-9943
▁Sheriff	-9944
▁Silence	-9945
▁Southam	-9946
▁Stephen	-9947
▁Success	-9948
▁Suffolk	-9949
▁Suppose	-9950
▁Tarquin	-9951
▁Therein	-9952
▁Thereof	-9953
▁Thither	-9954
▁Ulysses	-9955
▁Unhappy	-9956
▁VAUGHAN	-9957
▁Varrius	-9958
▁Whereby	-9959
▁Whoever	-9960
▁Witness	-9961
▁Wouldst	-9962
▁abandon	-9963
▁abroach	-9964
▁admiral	-9965
▁admired	-9966
▁adopted	-9967
▁affects	-9968
▁alarums	-9969
▁ambling	-9970
▁amended	-9971
▁anchors	-9972
▁anguish	-9973
▁answers	-9974
▁appeach	-9975
▁approve	-9976
▁arguing	-9977
▁assault	-9978
▁avoided	-9979
▁baggage	-9980
▁baleful	-9981
▁bargain	-9982
▁beggars	-9983
▁betters	-9984
▁blacker	-9985
▁blowing	-9986
▁blushes	-9987
▁borough	-9988
▁bottled	-9989
▁bravely	-9990
▁breaths	-9991
▁breeder	-9992
▁brittle	-9993
▁brutish	-9994
▁buckler	-9995
▁calling	-9996
▁cambric	-9997
▁cancell	-9998
▁captive	-9999
▁casting	-10000
▁ceremon	-10001
▁chances	-10002
▁changes	-10003
▁chiefly	-10004
▁circled	-10005
▁clouded	-10006
▁commune	-10007
▁conduit	-10008
▁confine	-10009
▁congeal	-10010
▁consist	-10011
▁consume	-10012
▁contain	-10013
▁contend	-10014
▁cordial	-10015
▁cottage	-10016
▁courses	-10017
▁crabbed	-10018
▁credent	-10019
▁crosses	-10020
▁cruelty	-10021
▁crystal	-10022
▁currish	-10023
▁cursing	-10024
▁cushion	-10025
▁cypress	-10026
▁defaced	-10027
▁defects	-10028
▁demands	-10029
▁denying	-10030
▁depends	-10031
▁descant	-10032
▁desired	-10033
▁destiny	-10034
▁dislike	-10035
▁divines	-10036
▁doctors	-10037
▁doleful	-10038
▁doubled	-10039
▁dullest	-10040
▁durance	-10041
▁effects	-10042
▁elected	-10043
▁endless	-10044
▁engross	-10045
▁envying	-10046
▁equally	-10047
▁escaped	-10048
▁evening	-10049
▁exactly	-10050
▁exceeds	-10051
▁excused	-10052
▁excuses	-10053
▁exhales	-10054
▁fairies	-10055
▁falling	-10056
▁fancies	-10057
▁feigned	-10058
▁figured	-10059
▁filling	-10060
▁fitness	-10061
▁forbids	-10062
▁forerun	-10063
▁forfend	-10064
▁forlorn	-10065
▁fraught	-10066
▁fresher	-10067
▁furious	-10068
▁gallows	-10069
▁gasping	-10070
▁ghastly	-10071
▁grafted	-10072
▁gravity	-10073
▁grossly	-10074
▁haggard	-10075
▁handled	-10076
▁hangmen	-10077
▁hapless	-10078
▁happier	-10079
▁hastily	-10080
▁hearken	-10081
▁helmets	-10082
▁heralds	-10083
▁heretic	-10084
▁hideous	-10085
▁highest	-10086
▁hostess	-10087
▁hostile	-10088
▁howling	-10089
▁impiety	-10090
▁implore	-10091
▁imports	-10092
▁induced	-10093
▁inhuman	-10094
▁issuing	-10095
▁justify	-10096
▁kernels	-10097
▁killing	-10098
▁kindest	-10099
▁knavery	-10100
▁labours	-10101
▁largess	-10102
▁leather	-10103
▁lechery	-10104
▁letting	-10105
▁licence	-10106
▁lurking	-10107
▁malmsey	-10108
▁mankind	-10109
▁marches	-10110
▁meanest	-10111
▁melting	-10112
▁merited	-10113
▁message	-10114
▁misdeed	-10115
▁moulded	-10116
▁mourner	-10117
▁muffled	-10118
▁noisome	-10119
▁notable	-10120
▁nourish	-10121
▁opposed	-10122
▁orators	-10123
▁oratory	-10124
▁ordered	-10125
▁orisons	-10126
▁outside	-10127
▁packing	-10128
▁panting	-10129
▁parcels	-10130
▁pardons	-10131
▁partake	-10132
▁passado	-10133
▁peasant	-10134
▁pelting	-10135
▁pensive	-10136
▁perfume	-10137
▁pinched	-10138
▁plagues	-10139
▁plaints	-10140
▁planted	-10141
▁players	-10142
▁plotted	-10143
▁plucked	-10144
▁politic	-10145
▁poorest	-10146
▁postern	-10147
▁potency	-10148
▁pratest	-10149
▁precept	-10150
▁prenzie	-10151
▁presses	-10152
▁prolong	-10153
▁proudly	-10154
▁proveth	-10155
▁provoke	-10156
▁publish	-10157
▁pursues	-10158
▁qualify	-10159
▁quicken	-10160
▁quietly	-10161
▁recount	-10162
▁relieve	-10163
▁requite	-10164
▁rescued	-10165
▁respite	-10166
▁resteth	-10167
▁resting	-10168
▁revived	-10169
▁ribbons	-10170
▁robbery	-10171
▁running	-10172
▁sailors	-10173
▁sainted	-10174
▁scepter	-10175
▁scruple	-10176
▁seconds	-10177
▁secrecy	-10178
▁seemeth	-10179
▁sending	-10180
▁serving	-10181
▁setting	-10182
▁sharper	-10183
▁shelves	-10184
▁shields	-10185
▁showing	-10186
▁shrieks	-10187
▁singled	-10188
▁slavish	-10189
▁sleeves	-10190
▁slumber	-10191
▁sparing	-10192
▁spoiled	-10193
▁sprites	-10194
▁squared	-10195
▁stabbed	-10196
▁stables	-10197
▁starved	-10198
▁stately	-10199
▁station	-10200
▁stealth	-10201
▁stories	-10202
▁strains	-10203
▁streaks	-10204
▁streams	-10205
▁strikes	-10206
▁studies	-10207
▁subdued	-10208
▁suffice	-10209
▁summers	-10210
▁tailors	-10211
▁talking	-10212
▁thrives	-10213
▁topmast	-10214
▁touches	-10215
▁trained	-10216
▁trivial	-10217
▁trusted	-10218
▁turning	-10219
▁twofold	-10220
▁unclean	-10221
▁uncrown	-10222
▁unquiet	-10223
▁unthank	-10224
▁veriest	-10225
▁victors	-10226
▁violate	-10227
▁wagging	-10228
▁warning	-10229
▁wealthy	-10230
▁wedlock	-10231
▁whipped	-10232
▁whistle	-10233
▁whoever	-10234
▁widower	-10235
▁winning	-10236
▁wisdoms	-10237
▁witless	-10238
▁working	-10239
▁wreaths	-10240
▁wrinkle	-10241
decessors	-10242
ercharged	-10243
▁Accursed	-10244
▁Anointed	-10245
▁BERKELEY	-10246
▁CARDINAL	-10247
▁Cytherea	-10248
▁December	-10249
▁Deserves	-10250
▁Despised	-10251
▁Enforced	-10252
▁Iniquity	-10253
▁Intended	-10254
▁Mortimer	-10255
▁Overdone	-10256
▁Pitchers	-10257
▁Provided	-10258
▁Renowned	-10259
▁Resolved	-10260
▁Senators	-10261
▁Sicinius	-10262
▁Standing	-10263
▁Thinking	-10264
▁Unworthy	-10265
▁Wondrous	-10266
▁Yourself	-10267
▁abortive	-10268
▁accustom	-10269
▁affected	-10270
▁agreeing	-10271
▁allowing	-10272
▁ambassad	-10273
▁answered	-10274
▁anything	-10275
▁applause	-10276
▁arrested	-10277
▁articles	-10278
▁assemble	-10279
▁assembly	-10280
▁assisted	-10281
▁audience	-10282
▁bachelor	-10283
▁bankrupt	-10284
▁basilisk	-10285
▁beauties	-10286
▁beggarly	-10287
▁beguiled	-10288
▁bestride	-10289
▁bracelet	-10290
▁braggart	-10291
▁bringing	-10292
▁bruising	-10293
▁buildeth	-10294
▁butchers	-10295
▁captives	-10296
▁carriage	-10297
▁censures	-10298
▁certaint	-10299
▁champion	-10300
▁chivalry	-10301
▁cloister	-10302
▁clusters	-10303
▁cockerel	-10304
▁codpiece	-10305
▁combined	-10306
▁comforts	-10307
▁confined	-10308
▁consents	-10309
▁conspire	-10310
▁contains	-10311
▁contempl	-10312
▁contrive	-10313
▁converts	-10314
▁covering	-10315
▁creation	-10316
▁creeping	-10317
▁cuckolds	-10318
▁dealings	-10319
▁declined	-10320
▁declines	-10321
▁dedicate	-10322
▁differen	-10323
▁directed	-10324
▁directly	-10325
▁discreet	-10326
▁disdains	-10327
▁disposed	-10328
▁dissolve	-10329
▁distance	-10330
▁division	-10331
▁doublets	-10332
▁duellist	-10333
▁dwellest	-10334
▁election	-10335
▁elements	-10336
▁embraces	-10337
▁enjoying	-10338
▁entreats	-10339
▁evidence	-10340
▁eyesight	-10341
▁falchion	-10342
▁famously	-10343
▁feasting	-10344
▁feverous	-10345
▁flattery	-10346
▁followed	-10347
▁foremost	-10348
▁forewarn	-10349
▁forfeits	-10350
▁formally	-10351
▁formerly	-10352
▁forsaken	-10353
▁forswore	-10354
▁fountain	-10355
▁freshest	-10356
▁frighted	-10357
▁furlongs	-10358
▁garlands	-10359
▁gorgeous	-10360
▁headlong	-10361
▁herdsmen	-10362
▁holidame	-10363
▁homicide	-10364
▁hopeless	-10365
▁horrible	-10366
▁horseman	-10367
▁humorous	-10368
▁huntsmen	-10369
▁imagined	-10370
▁impossib	-10371
▁infidels	-10372
▁injuries	-10373
▁insolent	-10374
▁intended	-10375
▁interior	-10376
▁justices	-10377
▁laboured	-10378
▁ladyship	-10379
▁languish	-10380
▁laughing	-10381
▁laughter	-10382
▁lectures	-10383
▁lightens	-10384
▁lovelier	-10385
▁luckless	-10386
▁mannerly	-10387
▁massacre	-10388
▁meantime	-10389
▁molehill	-10390
▁moveable	-10391
▁multitud	-10392
▁murdered	-10393
▁nearness	-10394
▁nobleman	-10395
▁nothings	-10396
▁oblivion	-10397
▁obscured	-10398
▁opposers	-10399
▁ornament	-10400
▁parallel	-10401
▁parasite	-10402
▁passages	-10403
▁pedigree	-10404
▁pheasant	-10405
▁pictures	-10406
▁plucking	-10407
▁prettily	-10408
▁pricking	-10409
▁proceeds	-10410
▁prodigal	-10411
▁profound	-10412
▁progress	-10413
▁province	-10414
▁punished	-10415
▁purblind	-10416
▁purposed	-10417
▁purposes	-10418
▁quarrels	-10419
▁rashness	-10420
▁readiest	-10421
▁receives	-10422
▁rehearse	-10423
▁released	-10424
▁reproach	-10425
▁requires	-10426
▁resisted	-10427
▁restless	-10428
▁revenues	-10429
▁runagate	-10430
▁securely	-10431
▁sessions	-10432
▁severity	-10433
▁shameful	-10434
▁slanders	-10435
▁solemnly	-10436
▁somebody	-10437
▁soothing	-10438
▁sounding	-10439
▁southern	-10440
▁spacious	-10441
▁sportful	-10442
▁spotless	-10443
▁staggers	-10444
▁standers	-10445
▁steterat	-10446
▁stinging	-10447
▁stirring	-10448
▁stomachs	-10449
▁straitly	-10450
▁striving	-10451
▁strucken	-10452
▁stubborn	-10453
▁studying	-10454
▁stumbled	-10455
▁supposes	-10456
▁surfeits	-10457
▁surprise	-10458
▁sweeting	-10459
▁syllable	-10460
▁temporal	-10461
▁testimon	-10462
▁thorough	-10463
▁thriving	-10464
▁torments	-10465
▁tortoise	-10466
▁tortures	-10467
▁treasury	-10468
▁troubles	-10469
▁tumbling	-10470
▁ungentle	-10471
▁ungovern	-10472
▁unhallow	-10473
▁unjustly	-10474
▁unlikely	-10475
▁unpeople	-10476
▁unpitied	-10477
▁untaught	-10478
▁unthrift	-10479
▁unwonted	-10480
▁vanquish	-10481
▁variable	-10482
▁vineyard	-10483
▁watching	-10484
▁westward	-10485
▁wheresoe	-10486
▁whipping	-10487
▁womanish	-10488
▁woodcock	-10489
▁wormwood	-10490
▁wrinkles	-10491
Coriolanus	-10492
▁Amazonian	-10493
▁Autolycus	-10494
▁Deucalion	-10495
▁Erroneous	-10496
▁Forbidden	-10497
▁Frederick	-10498
▁Guildhall	-10499
▁Hallowmas	-10500
▁Jerusalem	-10501
▁Leicester	-10502
▁Mamillius	-10503
▁Pronounce	-10504
▁Sebastian	-10505
▁Sometimes	-10506
▁Supposing	-10507
▁Tendering	-10508
▁Unsheathe	-10509
▁Vincetino	-10510
▁abundance	-10511
▁accounted	-10512
▁adversary	-10513
▁affecting	-10514
▁affianced	-10515
▁afflicted	-10516
▁amendment	-10517
▁ancestors	-10518
▁appearing	-10519
▁arbitrate	-10520
▁arguments	-10521
▁attentive	-10522
▁attorneys	-10523
▁austerity	-10524
▁beautiful	-10525
▁begetting	-10526
▁bitterest	-10527
▁blessings	-10528
▁boundless	-10529
▁bounteous	-10530
▁bountiful	-10531
▁certainly	-10532
▁clamorous	-10533
▁clergymen	-10534
▁collected	-10535
▁complices	-10536
▁conducted	-10537
▁confessed	-10538
▁confident	-10539
▁conquered	-10540
▁conserves	-10541
▁contagion	-10542
▁continued	-10543
▁convented	-10544
▁coverture	-10545
▁cowardice	-10546
▁credulous	-10547
▁crotchets	-10548
▁cupbearer	-10549
▁customers	-10550
▁daffodils	-10551
▁deceiving	-10552
▁declining	-10553
▁deformity	-10554
▁delicious	-10555
▁depending	-10556
▁different	-10557
▁discovery	-10558
▁dishonest	-10559
▁dissolute	-10560
▁distemper	-10561
▁distilled	-10562
▁dominions	-10563
▁education	-10564
▁eloquence	-10565
▁embassage	-10566
▁establish	-10567
▁executing	-10568
▁fantastic	-10569
▁fingering	-10570
▁firmament	-10571
▁fortnight	-10572
▁fourscore	-10573
▁frivolous	-10574
▁gillyvors	-10575
▁graceless	-10576
▁grumbling	-10577
▁heaviness	-10578
▁husbandry	-10579
▁impartial	-10580
▁incapable	-10581
▁induction	-10582
▁infirmity	-10583
▁ingenious	-10584
▁innocents	-10585
▁justified	-10586
▁learnedly	-10587
▁leisurely	-10588
▁lengthens	-10589
▁liberties	-10590
▁lingering	-10591
▁mischiefs	-10592
▁monastery	-10593
▁mortality	-10594
▁mountains	-10595
▁murderers	-10596
▁neglected	-10597
▁numbering	-10598
▁obsequies	-10599
▁obstacles	-10600
▁offenders	-10601
▁officious	-10602
▁ordinance	-10603
▁overboard	-10604
▁overheard	-10605
▁parchment	-10606
▁pardoning	-10607
▁patrimony	-10608
▁penitence	-10609
▁perceives	-10610
▁perdition	-10611
▁persuaded	-10612
▁pertinent	-10613
▁petticoat	-10614
▁plainness	-10615
▁pleasures	-10616
▁plebeians	-10617
▁poisonous	-10618
▁ponderous	-10619
▁principal	-10620
▁privately	-10621
▁professes	-10622
▁provision	-10623
▁purchased	-10624
▁qualified	-10625
▁receiving	-10626
▁recomfort	-10627
▁religious	-10628
▁reprehend	-10629
▁reversion	-10630
▁semblance	-10631
▁sepulchre	-10632
▁seventeen	-10633
▁shepherds	-10634
▁signified	-10635
▁southward	-10636
▁specially	-10637
▁spectacle	-10638
▁statesman	-10639
▁stockings	-10640
▁stoutness	-10641
▁strengths	-10642
▁stripling	-10643
▁subscribe	-10644
▁suppliant	-10645
▁supremacy	-10646
▁syllables	-10647
▁thankings	-10648
▁tradesmen	-10649
▁transform	-10650
▁traveller	-10651
▁treasures	-10652
▁universal	-10653
▁untainted	-10654
▁violation	-10655
▁vouchsafe	-10656
▁wealthily	-10657
▁wearisome	-10658
▁whereupon	-10659
▁withholds	-10660
▁wondering	-10661
▁worthiest	-10662
▁worthless	-10663
▁yesterday	-10664
▁Archbishop	-10665
▁Conceiving	-10666
▁Lascivious	-10667
▁Montgomery	-10668
▁Neapolitan	-10669
▁Prodigious	-10670
▁abominable	-10671
▁acceptance	-10672
▁admonition	-10673
▁affliction	-10674
▁afterwards	-10675
▁alteration	-10676
▁apprehends	-10677
▁arithmetic	-10678
▁artificial	-10679
▁attendants	-10680
▁auspicious	-10681
▁birthright	-10682
▁changeling	-10683
▁characters	-10684
▁charitable	-10685
▁cockatrice	-10686
▁companions	-10687
▁compliment	-10688
▁conquerors	-10689
▁considered	-10690
▁conspiracy	-10691
▁continency	-10692
▁contracted	-10693
▁contradict	-10694
▁convenient	-10695
▁conveyance	-10696
▁courageous	-10697
▁deliberate	-10698
▁despairing	-10699
▁destroying	-10700
▁detestable	-10701
▁discipline	-10702
▁discourses	-10703
▁disinherit	-10704
▁dissension	-10705
▁distinctly	-10706
▁encounters	-10707
▁endeavours	-10708
▁enterprise	-10709
▁especially	-10710
▁excellence	-10711
▁expedition	-10712
▁experience	-10713
▁favourable	-10714
▁fellowship	-10715
▁foundation	-10716
▁glistering	-10717
▁greediness	-10718
▁honourably	-10719
▁importance	-10720
▁importuned	-10721
▁indictment	-10722
▁indirectly	-10723
▁inexorable	-10724
▁infallible	-10725
▁infectious	-10726
▁instructed	-10727
▁intelligen	-10728
▁magistrate	-10729
▁malcontent	-10730
▁manifested	-10731
▁methoughts	-10732
▁millstones	-10733
▁miscarried	-10734
▁neglecting	-10735
▁obsequious	-10736
▁packthread	-10737
▁pennyworth	-10738
▁perfection	-10739
▁personally	-10740
▁playfellow	-10741
▁proceeding	-10742
▁promotions	-10743
▁prophecies	-10744
▁prosperity	-10745
▁protection	-10746
▁protectors	-10747
▁pursuivant	-10748
▁reconciled	-10749
▁recreation	-10750
▁remembered	-10751
▁scandalous	-10752
▁schoolboys	-10753
▁succeeding	-10754
▁successful	-10755
▁temperance	-10756
▁throughout	-10757
▁tongueless	-10758
▁unaccustom	-10759
▁unconstant	-10760
▁understood	-10761
▁ungrateful	-10762
▁unparallel	-10763
▁unreverent	-10764
▁unstanched	-10765
▁wilderness	-10766
▁CHRISTOPHER	-10767
▁Christendom	-10768
▁Westminster	-10769
▁accompanied	-10770
▁accusations	-10771
▁advancement	-10772
▁appointment	-10773
▁authorities	-10774
▁battlements	-10775
▁benefactors	-10776
▁chamberlain	-10777
▁commandment	-10778
▁commendable	-10779
▁complaining	-10780
▁complexions	-10781
▁considering	-10782
▁continuance	-10783
▁countermand	-10784
▁dangerously	-10785
▁desperation	-10786
▁disgracious	-10787
▁disobedient	-10788
▁dissembling	-10789
▁earnestness	-10790
▁everlasting	-10791
▁experienced	-10792
▁fantastical	-10793
▁forbearance	-10794
▁fornication	-10795
▁immediately	-10796
▁impregnable	-10797
▁incorporate	-10798
▁indignation	-10799
▁inheritance	-10800
▁insinuating	-10801
▁interrupted	-10802
▁lamentation	-10803
▁maidenheads	-10804
▁necessaries	-10805
▁ostentation	-10806
▁profanation	-10807
▁quarrelling	-10808
▁stewardship	-10809
▁strangeness	-10810
▁substantial	-10811
▁substitutes	-10812
▁sufficiency	-10813
▁superfluity	-10814
▁superfluous	-10815
▁temperately	-10816
▁territories	-10817
▁therewithal	-10818
▁unfortunate	-10819
▁unspeakable	-10820
▁unsuspected	-10821
▁unwholesome	-10822
▁unwillingly	-10823
▁yesternight	-10824
▁Christophero	-10825
▁Conspirators	-10826
▁Henceforward	-10827
▁Westmoreland	-10828
▁caterpillars	-10829
▁chastisement	-10830
▁conversation	-10831
▁dispositions	-10832
▁handkerchief	-10833
▁instructions	-10834
▁intercession	-10835
▁peradventure	-10836
▁predecessors	-10837
▁prescription	-10838
▁preservation	-10839
▁circumstances	-10840
▁encouragement	-10841
▁everlastingly	-10842
▁forgetfulness	-10843
▁precipitation	-10844
▁transgression	-10845
▁interpretation	-10846
▁unthankfulness	-10847
▁Gloucestershire	-10848
▁interchangeably	-10849
cox	-10850
ogy	-10851
acob	-10852
afed	-10853
baby	-10854
bait	-10855
clip	-10856
cule	-10857
echy	-10858
foes	-10859
gamo	-10860
geny	-10861
igma	-10862
offs	-10863
oifs	-10864
owdy	-10865
tney	-10866
webs	-10867
ycur	-10868
zalo	-10869
▁aug	-10870
Still	-10871
adoes	-10872
aloon	-10873
apper	-10874
brook	-10875
bwebs	-10876
dalls	-10877
desby	-10878
doubt	-10879
drawn	-10880
elids	-10881
evils	-10882
fumed	-10883
giver	-10884
hargy	-10885
heirs	-10886
ichol	-10887
imson	-10888
iptoe	-10889
iscan	-10890
lphur	-10891
ology	-10892
olumn	-10893
oseph	-10894
quiry	-10895
ravio	-10896
riton	-10897
shaft	-10898
stril	-10899
jax	-10900
▁Imm	-10901
bscri	-10902
logic	-10903
tonhe	-10904
trick	-10905
tuned	-10906
uliar	-10907
urora	-10908
urril	-10909
uxury	-10910
vitae	-10911
weigh	-10912
whelm	-10913
whist	-10914
women	-10915
ycurg	-10916
▁Affr	-10917
▁Agam	-10918
▁Airy	-10919
▁Ajax	-10920
▁Brid	-10921
▁Cuts	-10922
▁Daph	-10923
▁Esse	-10924
▁Hann	-10925
▁Leda	-10926
▁Nips	-10927
▁Runs	-10928
▁Subd	-10929
▁Winc	-10930
▁Worc	-10931
▁crop	-10932
▁cros	-10933
▁daws	-10934
▁demi	-10935
▁ewer	-10936
▁hymn	-10937
▁inev	-10938
▁lids	-10939
▁rhet	-10940
▁sorc	-10941
▁wadd	-10942
appare	-10943
ascule	-10944
asseth	-10945
atisfy	-10946
breach	-10947
castle	-10948
dinand	-10949
ditary	-10950
employ	-10951
ermane	-10952
eyeing	-10953
fathom	-10954
fishes	-10955
garsop	-10956
ground	-10957
incial	-10958
isaged	-10959
ishers	-10960
lackey	-10961
mblers	-10962
mblies	-10963
neglig	-10964
olical	-10965
oplexy	-10966
orgive	-10967
orizer	-10968
oubled	-10969
oubted	-10970
ptedly	-10971
pulous	-10972
reaved	-10973
ricado	-10974
ricket	-10975
rieves	-10976
roused	-10977
secute	-10978
seeing	-10979
shaped	-10980
turned	-10981
ugging	-10982
unjust	-10983
wheels	-10984
▁AEsop	-10985
▁Added	-10986
▁Affli	-10987
▁Ancus	-10988
▁Beaum	-10989
▁Began	-10990
▁Cushi	-10991
▁Dream	-10992
▁Droop	-10993
▁Enjoy	-10994
▁Error	-10995
▁Essex	-10996
▁Exped	-10997
▁Filth	-10998
▁Flora	-10999
▁Hyr	-11000
built	-11001
goned	-11002
▁Elys	-11003
cerity	-11004
ulsion	-11005
▁Bened	-11006
▁Benef	-11007
▁Elysi	-11008
▁Finds	-11009
▁Graze	-11010
▁Insol	-11011
▁Jacob	-11012
▁Laura	-11013
▁Lifts	-11014
▁Minos	-11015
▁Plead	-11016
▁Pluto	-11017
▁Purge	-11018
▁Quint	-11019
▁Scoff	-11020
▁Seteb	-11021
▁Shuts	-11022
▁Sinon	-11023
▁Skipp	-11024
▁Slain	-11025
▁Sneak	-11026
▁Swarm	-11027
▁Unarm	-11028
▁audit	-11029
▁balms	-11030
▁birch	-11031
▁bolts	-11032
▁bonny	-11033
▁brunt	-11034
▁chats	-11035
▁chatt	-11036
▁cools	-11037
▁dedic	-11038
▁deriv	-11039
▁ditch	-11040
▁dowdy	-11041
▁eclip	-11042
▁elbow	-11043
▁felon	-11044
▁fixed	-11045
▁fixes	-11046
▁freck	-11047
▁funer	-11048
▁gazes	-11049
▁gored	-11050
▁gulls	-11051
▁habil	-11052
▁havoc	-11053
▁hooks	-11054
▁horiz	-11055
▁hyper	-11056
▁jacks	-11057
▁jumps	-11058
▁lofty	-11059
▁malef	-11060
▁moths	-11061
▁mothy	-11062
▁nutme	-11063
▁nymph	-11064
▁pithy	-11065
▁pregn	-11066
▁ravin	-11067
▁rhyme	-11068
▁rusty	-11069
▁savag	-11070
▁sessa	-11071
▁shuns	-11072
▁slips	-11073
▁slipt	-11074
▁splay	-11075
▁stags	-11076
▁stigm	-11077
▁summa	-11078
▁swarm	-11079
▁trimm	-11080
▁unciv	-11081
▁unhur	-11082
▁vigil	-11083
▁vitae	-11084
▁wiped	-11085
amworth	-11086
ausible	-11087
believe	-11088
bellied	-11089
borough	-11090
breaker	-11091
catcher	-11092
chequer	-11093
cluding	-11094
dispers	-11095
enances	-11096
ergrown	-11097
erpower	-11098
erryman	-11099
ALIS	-11100
Jesu	-11101
Thus	-11102
arib	-11103
ibal	-11104
prus	-11105
welt	-11106
ipped	-11107
▁unbu	-11108
aribel	-11109
seller	-11110
shaken	-11111
ucting	-11112
waning	-11113
▁Calib	-11114
▁Compr	-11115
▁Dares	-11116
▁Dwelt	-11117
▁Misgu	-11118
▁SALIS	-11119
▁Seest	-11120
▁Simon	-11121
▁Water	-11122
▁napes	-11123
▁snail	-11124
ershade	-11125
erthrow	-11126
ewasted	-11127
fathers	-11128
happily	-11129
icatest	-11130
iculate	-11131
iculous	-11132
iercing	-11133
incible	-11134
inhabit	-11135
ipotent	-11136
irlwind	-11137
itravio	-11138
itulate	-11139
keepers	-11140
kindled	-11141
lflocks	-11142
liances	-11143
lowered	-11144
mercies	-11145
mongers	-11146
oloured	-11147
olumnia	-11148
ontroll	-11149
pertied	-11150
pierced	-11151
quisite	-11152
ragoned	-11153
riously	-11154
ripture	-11155
rivener	-11156
secutor	-11157
servant	-11158
shotten	-11159
stomach	-11160
suckers	-11161
terpret	-11162
thening	-11163
ucullus	-11164
utually	-11165
versely	-11166
vocable	-11167
warrant	-11168
whither	-11169
▁Accuse	-11170
▁Argues	-11171
▁Awakes	-11172
▁Barely	-11173
▁Beauty	-11174
▁Bretag	-11175
▁Broach	-11176
▁Brocas	-11177
▁Broken	-11178
▁Caucas	-11179
▁Cleave	-11180
▁Courts	-11181
▁Cyprus	-11182
▁Doctor	-11183
▁Double	-11184
▁Dreams	-11185
▁Dreamt	-11186
▁Enrich	-11187
▁Excels	-11188
▁FRANCI	-11189
▁Fillip	-11190
▁Fouler	-11191
▁Furies	-11192
▁Gladly	-11193
▁Grapes	-11194
▁Graybe	-11195
▁Griefs	-11196
▁Guilty	-11197
▁Helena	-11198
▁Holloa	-11199
?--'	-11200
luce	-11201
eighs	-11202
folks	-11203
itoes	-11204
month	-11205
sprey	-11206
ummon	-11207
▁Load	-11208
▁Preo	-11209
▁Smal	-11210
▁Wait	-11211
▁hews	-11212
anuary	-11213
reased	-11214
stoned	-11215
titoes	-11216
▁Bunch	-11217
▁Loath	-11218
▁Preys	-11219
▁Remit	-11220
▁bills	-11221
▁pages	-11222
▁rival	-11223
▁sects	-11224
courage	-11225
ederary	-11226
emnants	-11227
▁Ghosts	-11228
▁Hostil	-11229
▁Humbly	-11230
▁Hunger	-11231
▁Inclin	-11232
▁Infuse	-11233
▁Intend	-11234
▁Joseph	-11235
▁Junius	-11236
▁Labour	-11237
▁Listen	-11238
▁Living	-11239
▁Loaden	-11240
▁Lycurg	-11241
▁Marcus	-11242
▁Miscon	-11243
▁Nearer	-11244
▁Nimble	-11245
▁Partly	-11246
▁Praise	-11247
▁Preocc	-11248
▁Priami	-11249
▁Proser	-11250
▁Refuse	-11251
▁Relish	-11252
▁Remove	-11253
▁Repeal	-11254
▁Retort	-11255
▁Revive	-11256
▁Robert	-11257
▁Rogero	-11258
▁Saddle	-11259
▁Safely	-11260
▁Sandal	-11261
▁Scroop	-11262
▁Selves	-11263
▁Sevent	-11264
▁Shamed	-11265
▁Smalus	-11266
▁Stifle	-11267
▁Suffer	-11268
▁Summon	-11269
▁Tetchy	-11270
▁Thrice	-11271
▁Unbind	-11272
▁Varlet	-11273
▁Wincot	-11274
▁Woodst	-11275
▁adorns	-11276
▁ambusc	-11277
▁annals	-11278
▁avails	-11279
▁barbar	-11280
▁barded	-11281
▁bemoan	-11282
▁blazon	-11283
▁bubble	-11284
▁bulwar	-11285
▁buzzed	-11286
▁carbon	-11287
▁celest	-11288
▁chapel	-11289
▁clocks	-11290
▁cobble	-11291
▁coffer	-11292
▁coffin	-11293
▁collar	-11294
▁combat	-11295
▁concub	-11296
▁conjur	-11297
▁corpse	-11298
▁crafts	-11299
knit	-11300
bbish	-11301
bbles	-11302
cerns	-11303
ennet	-11304
erkin	-11305
hests	-11306
thest	-11307
▁Appl	-11308
▁Kept	-11309
▁Naps	-11310
▁grud	-11311
▁pipe	-11312
gshead	-11313
ribbed	-11314
rising	-11315
▁apric	-11316
▁debts	-11317
▁pipes	-11318
▁quote	-11319
▁stepp	-11320
▁ungen	-11321
▁wages	-11322
▁woods	-11323
married	-11324
▁Bennet	-11325
▁Impute	-11326
▁Indian	-11327
▁Swills	-11328
▁bewept	-11329
▁censer	-11330
▁crafty	-11331
▁debile	-11332
▁demise	-11333
▁detain	-11334
▁disadv	-11335
▁disann	-11336
▁disarm	-11337
▁disbur	-11338
▁dissol	-11339
▁drives	-11340
▁easier	-11341
▁enigma	-11342
▁enroll	-11343
▁equall	-11344
▁establ	-11345
▁fisher	-11346
▁foeman	-11347
▁folded	-11348
▁fornic	-11349
▁frankl	-11350
▁fronts	-11351
▁frosts	-11352
▁frosty	-11353
▁furnit	-11354
▁gazers	-11355
▁gazing	-11356
▁gelded	-11357
▁gentry	-11358
▁gossam	-11359
▁gossip	-11360
▁grange	-11361
▁grassy	-11362
▁graybe	-11363
▁grumbl	-11364
▁habits	-11365
▁halloo	-11366
▁havior	-11367
▁hewing	-11368
▁hoping	-11369
▁inkles	-11370
▁inquis	-11371
▁jerkin	-11372
▁leases	-11373
▁legion	-11374
▁levies	-11375
▁likest	-11376
▁linens	-11377
▁locked	-11378
▁lockra	-11379
▁lunacy	-11380
▁mammet	-11381
▁martyr	-11382
▁mercat	-11383
▁meteor	-11384
▁mickle	-11385
▁minimo	-11386
▁mirror	-11387
▁misapp	-11388
▁miscar	-11389
▁muscad	-11390
▁nicety	-11391
▁nymphs	-11392
▁oceans	-11393
▁osprey	-11394
▁overgo	-11395
▁peaces	-11396
▁pearls	-11397
▁perdon	-11398
▁pirate	-11399
eky	-11400
ysm	-11401
leek	-11402
▁Peg	-11403
named	-11404
unday	-11405
urers	-11406
▁Chop	-11407
▁Feed	-11408
▁Leap	-11409
▁flea	-11410
▁snea	-11411
▁tund	-11412
Sunday	-11413
ipping	-11414
rusion	-11415
urions	-11416
▁Dared	-11417
▁Pegas	-11418
▁Shave	-11419
▁abysm	-11420
▁aunts	-11421
▁bared	-11422
▁circu	-11423
▁decor	-11424
▁demes	-11425
▁gleek	-11426
▁irons	-11427
▁irrem	-11428
▁oddly	-11429
▁poesy	-11430
▁reeky	-11431
▁sways	-11432
▁yards	-11433
edified	-11434
irgilia	-11435
natches	-11436
▁Beyond	-11437
▁aspire	-11438
▁budger	-11439
▁dismay	-11440
▁dismis	-11441
▁facing	-11442
▁halves	-11443
▁misses	-11444
▁oddest	-11445
▁portly	-11446
▁powder	-11447
▁prejud	-11448
▁prints	-11449
▁puling	-11450
▁purest	-11451
▁pushes	-11452
▁quarts	-11453
▁quests	-11454
▁quoifs	-11455
▁railer	-11456
▁ransom	-11457
▁rarely	-11458
▁reflex	-11459
▁reiter	-11460
▁repeat	-11461
▁reprob	-11462
▁rhetor	-11463
▁ribbon	-11464
▁rubies	-11465
▁salute	-11466
▁scaled	-11467
▁scared	-11468
▁scoffs	-11469
▁scroll	-11470
▁scurvy	-11471
▁sequel	-11472
▁sermon	-11473
▁serpig	-11474
▁sexton	-11475
▁shrugs	-11476
▁skills	-11477
▁smacks	-11478
▁snatch	-11479
▁sowing	-11480
▁splend	-11481
▁sprays	-11482
▁sprite	-11483
▁squeak	-11484
▁squier	-11485
▁stares	-11486
▁stewed	-11487
▁sticks	-11488
▁stifle	-11489
▁stoned	-11490
▁superf	-11491
▁surety	-11492
▁swayed	-11493
▁tabour	-11494
▁tapers	-11495
▁tasted	-11496
▁tetchy	-11497
▁tiptoe	-11498
▁trifle	-11499
flaw	-11500
Where	-11501
phere	-11502
spent	-11503
spire	-11504
unged	-11505
▁Coin	-11506
▁baes	-11507
▁cadd	-11508
▁hosp	-11509
Maries	-11510
chased	-11511
hysics	-11512
▁Leads	-11513
▁ambig	-11514
▁cites	-11515
▁cream	-11516
▁eased	-11517
▁faded	-11518
▁rises	-11519
▁sensi	-11520
▁verge	-11521
▁verse	-11522
▁whelp	-11523
peeding	-11524
▁Transp	-11525
▁ambigu	-11526
▁arrive	-11527
▁blinds	-11528
▁circle	-11529
▁empire	-11530
▁lodges	-11531
▁mangle	-11532
▁shores	-11533
▁soothe	-11534
▁sphere	-11535
▁spites	-11536
▁stormy	-11537
▁tallow	-11538
▁tutors	-11539
▁uglier	-11540
▁unbree	-11541
▁undeaf	-11542
▁undisc	-11543
▁unhurt	-11544
▁unmade	-11545
▁unreal	-11546
▁valued	-11547
▁vapour	-11548
▁venuto	-11549
▁vizard	-11550
▁vouchs	-11551
▁warder	-11552
▁weeded	-11553
▁weeder	-11554
▁weighs	-11555
▁wether	-11556
▁wizard	-11557
▁wonted	-11558
▁worshi	-11559
Cucullus	-11560
Farewell	-11561
ambering	-11562
aphysics	-11563
aspiring	-11564
baitings	-11565
begotten	-11566
contempt	-11567
contract	-11568
cupboard	-11569
dragoned	-11570
dropping	-11571
elligent	-11572
farewell	-11573
foldings	-11574
giveness	-11575
indstone	-11576
inescore	-11577
ishonour	-11578
ittering	-11579
lectable	-11580
matching	-11581
onstrain	-11582
orseless	-11583
pardonne	-11584
presseth	-11585
quements	-11586
reditary	-11587
rustrate	-11588
seducing	-11589
speeding	-11590
stitches	-11591
treading	-11592
undation	-11593
upturned	-11594
urrilous	-11595
vocation	-11596
volences	-11597
whelming	-11598
▁Address	-11599
uba	-11600
acts	-11601
cuba	-11602
pact	-11603
grand	-11604
paced	-11605
rated	-11606
vated	-11607
▁Copp	-11608
▁Skul	-11609
▁club	-11610
Sigeia	-11611
angren	-11612
arated	-11613
drench	-11614
kshire	-11615
racian	-11616
stools	-11617
thrift	-11618
▁Exact	-11619
▁Gazed	-11620
▁Merry	-11621
▁Turns	-11622
▁Tutus	-11623
▁rated	-11624
▁spang	-11625
▁taper	-11626
beloved	-11627
itating	-11628
nations	-11629
onshire	-11630
▁Hecuba	-11631
▁Resume	-11632
▁Tickle	-11633
▁aiding	-11634
▁enacts	-11635
▁glazed	-11636
▁holier	-11637
▁milder	-11638
▁pitchy	-11639
▁relate	-11640
▁unload	-11641
▁untang	-11642
▁vilely	-11643
angrened	-11644
orkshire	-11645
secrated	-11646
▁Affront	-11647
▁Agamemn	-11648
▁Angelic	-11649
▁Athwart	-11650
▁Beating	-11651
▁Benedic	-11652
▁Bergamo	-11653
▁Bridget	-11654
▁Bruised	-11655
▁Catling	-11656
▁Clowder	-11657
▁Compact	-11658
▁Coppers	-11659
▁Cunning	-11660
▁Curster	-11661
▁Deliver	-11662
▁Divides	-11663
▁Elected	-11664
▁Embrace	-11665
▁Ensuing	-11666
▁Exactly	-11667
▁Exceeds	-11668
▁Exposed	-11669
▁FRANCIS	-11670
▁Fancies	-11671
▁Filling	-11672
▁Florent	-11673
▁Forbids	-11674
▁Francis	-11675
▁Gallows	-11676
▁Groping	-11677
▁Happier	-11678
▁Himself	-11679
▁Implore	-11680
▁Ingrate	-11681
▁Inherit	-11682
▁Judases	-11683
▁Kentish	-11684
▁Kissing	-11685
▁Ladders	-11686
▁Marquis	-11687
▁Matters	-11688
▁Mounted	-11689
▁Neglect	-11690
▁Nourish	-11691
▁Olympus	-11692
▁Opinion	-11693
▁Partlet	-11694
▁Peering	-11695
▁Pegasus	-11696
▁Perfume	-11697
▁Piteous	-11698
▁Players	-11699
awns	-11700
ivor	-11701
ipple	-11702
mitig	-11703
ormed	-11704
thony	-11705
vivor	-11706
▁Dism	-11707
▁Flow	-11708
▁Flut	-11709
▁Rude	-11710
▁Scal	-11711
▁palp	-11712
▁rote	-11713
▁yawn	-11714
achers	-11715
amples	-11716
mitage	-11717
nounce	-11718
semble	-11719
▁Abhor	-11720
▁Armed	-11721
▁Blanc	-11722
▁Displ	-11723
▁Freed	-11724
▁edges	-11725
▁fatig	-11726
▁lawns	-11727
▁moods	-11728
▁palsy	-11729
▁refer	-11730
▁rides	-11731
▁unset	-11732
enounce	-11733
terbury	-11734
▁Daring	-11735
▁Supply	-11736
▁envied	-11737
▁excels	-11738
▁helmed	-11739
▁mutter	-11740
▁nipple	-11741
▁palmer	-11742
▁premed	-11743
▁ravish	-11744
▁sheeps	-11745
▁united	-11746
▁urgent	-11747
ceptacle	-11748
enounced	-11749
omachers	-11750
▁Anthony	-11751
▁Flutter	-11752
▁Pattern	-11753
▁Plunged	-11754
▁Praised	-11755
▁Prevent	-11756
▁Produce	-11757
▁Proserp	-11758
▁Quintus	-11759
▁Rainold	-11760
▁Respect	-11761
▁Sailing	-11762
▁Satisfy	-11763
▁Scaling	-11764
▁Scandal	-11765
▁Slander	-11766
▁Sojourn	-11767
▁Strange	-11768
▁Subdues	-11769
▁Subscri	-11770
▁Suffice	-11771
▁Talkers	-11772
▁Tiberio	-11773
▁Touches	-11774
▁Traitor	-11775
▁Tremble	-11776
▁Turning	-11777
▁Tyrants	-11778
▁Unheard	-11779
▁Untouch	-11780
▁Unvener	-11781
▁Unwield	-11782
▁Valiant	-11783
▁Wanting	-11784
▁Weeping	-11785
▁Wenches	-11786
▁abjects	-11787
▁aboding	-11788
▁accuses	-11789
▁adheres	-11790
▁adorned	-11791
▁almsman	-11792
▁amazing	-11793
▁amounts	-11794
▁archers	-11795
▁arrests	-11796
▁arrives	-11797
▁audible	-11798
▁augurer	-11799
;'--	-11800
cann	-11801
ggest	-11802
ivity	-11803
piled	-11804
rents	-11805
riety	-11806
steem	-11807
yster	-11808
▁Heav	-11809
▁degr	-11810
▁fann	-11811
▁rigg	-11812
bodied	-11813
briety	-11814
cannon	-11815
guiled	-11816
rimend	-11817
roider	-11818
umbers	-11819
urrent	-11820
▁Fault	-11821
▁Hames	-11822
▁Heavy	-11823
▁novel	-11824
▁salut	-11825
▁slash	-11826
▁studs	-11827
▁unfil	-11828
▁unsha	-11829
ability	-11830
rentice	-11831
steries	-11832
▁Belong	-11833
▁Bolder	-11834
▁Esteem	-11835
▁Faults	-11836
▁bedash	-11837
▁belock	-11838
▁exiled	-11839
▁joiner	-11840
▁magnif	-11841
▁makest	-11842
▁oyster	-11843
▁ranges	-11844
▁travel	-11845
▁unfill	-11846
▁unfirm	-11847
rimendum	-11848
▁Bidding	-11849
▁Conceit	-11850
▁Release	-11851
▁Suggest	-11852
▁austere	-11853
▁balance	-11854
▁becomed	-11855
▁beetles	-11856
▁beseems	-11857
▁bestrid	-11858
▁betroth	-11859
▁blasphe	-11860
▁blasted	-11861
▁bleated	-11862
▁bluntly	-11863
▁boarded	-11864
▁bolster	-11865
▁booties	-11866
▁bruised	-11867
▁buttery	-11868
▁carping	-11869
▁catched	-11870
▁catches	-11871
▁causest	-11872
▁channel	-11873
▁charnel	-11874
▁cheaper	-11875
▁chiding	-11876
▁cobwebs	-11877
▁coffins	-11878
▁coining	-11879
▁collars	-11880
▁concern	-11881
▁concord	-11882
▁copious	-11883
▁couples	-11884
▁cozened	-11885
▁cradled	-11886
▁crammed	-11887
▁cricket	-11888
▁crooked	-11889
▁crossed	-11890
▁crupper	-11891
▁cullion	-11892
▁darling	-11893
▁dauphin	-11894
▁declare	-11895
▁decorum	-11896
▁differs	-11897
▁digress	-11898
▁dimples	-11899
rimm	-11900
▁Erp	-11901
aulty	-11902
brate	-11903
holer	-11904
▁Exec	-11905
▁Perj	-11906
▁idol	-11907
▁unkn	-11908
adding	-11909
ediles	-11910
geonly	-11911
ifully	-11912
udding	-11913
urally	-11914
▁Pursu	-11915
▁Trimm	-11916
▁idles	-11917
▁lanes	-11918
▁oweth	-11919
▁piles	-11920
▁shady	-11921
▁solem	-11922
▁surce	-11923
▁surpl	-11924
▁surre	-11925
▁tilth	-11926
▁unfin	-11927
▁waxed	-11928
astards	-11929
▁Choler	-11930
▁Exempt	-11931
▁Peruse	-11932
▁famine	-11933
▁filled	-11934
▁foemen	-11935
▁horsed	-11936
▁hurdle	-11937
▁idolat	-11938
▁indite	-11939
▁lamely	-11940
▁loaths	-11941
▁poking	-11942
▁pulled	-11943
▁salter	-11944
▁shades	-11945
▁steads	-11946
▁tavern	-11947
▁unknit	-11948
▁unwise	-11949
▁vainly	-11950
▁vaulty	-11951
urgeonly	-11952
▁Duchess	-11953
▁Execute	-11954
▁Perjury	-11955
▁Pudding	-11956
▁Pursued	-11957
▁aediles	-11958
▁applied	-11959
▁bencher	-11960
▁dissemb	-11961
▁drybeat	-11962
▁duchess	-11963
▁dulness	-11964
▁eminent	-11965
▁entered	-11966
▁epitaph	-11967
▁escapes	-11968
▁evasion	-11969
▁expiate	-11970
▁eyeball	-11971
▁fantasy	-11972
▁fathoms	-11973
▁fatting	-11974
▁fertile	-11975
▁fiddler	-11976
▁figures	-11977
▁flowery	-11978
▁forcing	-11979
▁foxship	-11980
▁freezes	-11981
▁frights	-11982
▁gadding	-11983
▁germane	-11984
▁gesture	-11985
▁habited	-11986
▁harlots	-11987
▁healthy	-11988
▁heaping	-11989
▁hoarded	-11990
▁incaged	-11991
▁incline	-11992
▁infancy	-11993
▁infects	-11994
▁inkling	-11995
▁inveter	-11996
▁journal	-11997
▁knavish	-11998
▁lampass	-11999
tsy	-12000
affs	-12001
hize	-12002
ivol	-12003
nats	-12004
oked	-12005
vals	-12006
▁emm	-12007
▁zen	-12008
heeze	-12009
kedst	-12010
mbals	-12011
pired	-12012
rozen	-12013
rusts	-12014
tired	-12015
▁Carn	-12016
▁Conc	-12017
▁Shaw	-12018
▁bots	-12019
▁cats	-12020
▁limb	-12021
▁pots	-12022
athize	-12023
finger	-12024
ivolii	-12025
rumble	-12026
veying	-12027
▁Spraw	-12028
▁aired	-12029
▁crust	-12030
▁feats	-12031
▁galli	-12032
▁gnats	-12033
▁hired	-12034
▁lamps	-12035
▁obeys	-12036
▁sauce	-12037
▁seals	-12038
▁shops	-12039
▁waved	-12040
▁yoked	-12041
ATARINA	-12042
leeping	-12043
▁Advers	-12044
▁Frozen	-12045
▁Pierce	-12046
▁Sprawl	-12047
▁cleare	-12048
▁curtsy	-12049
▁gallim	-12050
▁ginger	-12051
▁insult	-12052
▁pheeze	-12053
▁rivals	-12054
▁scales	-12055
▁spying	-12056
▁swerve	-12057
▁zenith	-12058
offences	-12059
sleeping	-12060
▁Concern	-12061
▁Conform	-12062
▁Sweetly	-12063
▁Thrusts	-12064
▁aspired	-12065
▁attired	-12066
▁clearer	-12067
▁cowards	-12068
▁cymbals	-12069
▁defying	-12070
▁emmence	-12071
▁gallery	-12072
▁grumble	-12073
▁heating	-12074
▁lapsing	-12075
▁lingers	-12076
▁lodgers	-12077
▁louring	-12078
▁lustier	-12079
▁manacle	-12080
▁mansion	-12081
▁margent	-12082
▁matches	-12083
▁matrons	-12084
▁milking	-12085
▁million	-12086
▁mixture	-12087
▁monthly	-12088
▁mounted	-12089
▁mutable	-12090
▁nettled	-12091
▁nodding	-12092
▁nostril	-12093
▁novelty	-12094
▁numbers	-12095
▁nursery	-12096
▁nursing	-12097
▁nutmegs	-12098
▁obscure	-12099
beck	-12100
neck	-12101
need	-12102
soil	-12103
▁Kne	-12104
ramed	-12105
▁Lucy	-12106
▁blew	-12107
▁dogg	-12108
▁eyne	-12109
▁shoe	-12110
▁urch	-12111
before	-12112
christ	-12113
framed	-12114
needed	-12115
ptuous	-12116
rights	-12117
ristol	-12118
spokes	-12119
sworth	-12120
▁Kneel	-12121
▁admin	-12122
▁argue	-12123
▁clang	-12124
▁innov	-12125
▁label	-12126
▁scarf	-12127
▁snarl	-12128
▁stabs	-12129
▁vines	-12130
▁vowel	-12131
▁younk	-12132
antaged	-12133
pointed	-12134
▁Consul	-12135
▁Friend	-12136
▁Rebeck	-12137
▁Thisbe	-12138
▁admits	-12139
▁awaked	-12140
▁bawdry	-12141
▁exempt	-12142
▁givest	-12143
▁greasy	-12144
▁lacked	-12145
▁raught	-12146
▁riding	-12147
▁scarfs	-12148
▁unsoil	-12149
▁wiping	-12150
christen	-12151
righting	-12152
▁Bristol	-12153
▁accents	-12154
▁exclaim	-12155
▁naughty	-12156
▁offered	-12157
▁oftener	-12158
▁omitted	-12159
▁opposer	-12160
▁oppress	-12161
▁outdone	-12162
▁overset	-12163
▁pageant	-12164
▁palmers	-12165
▁pantler	-12166
▁parcell	-12167
▁pathway	-12168
▁pebbles	-12169
▁pedlars	-12170
▁peepeth	-12171
▁peereth	-12172
▁peering	-12173
▁penance	-12174
▁perdona	-12175
▁pierced	-12176
▁pirates	-12177
▁pleader	-12178
▁pompous	-12179
▁pouring	-12180
▁praised	-12181
▁precurs	-12182
▁prelate	-12183
▁priests	-12184
▁princox	-12185
▁prompts	-12186
▁prosely	-12187
▁provand	-12188
▁proverb	-12189
▁prudent	-12190
▁puritan	-12191
▁reeling	-12192
▁rejourn	-12193
▁relents	-12194
▁remonst	-12195
▁repeals	-12196
▁reprove	-12197
▁reverse	-12198
▁richest	-12199
sub	-12200
hemy	-12201
kels	-12202
ounc	-12203
ouns	-12204
supp	-12205
▁pip	-12206
▁urn	-12207
arism	-12208
chery	-12209
counc	-12210
eally	-12211
ipers	-12212
iwork	-12213
oully	-12214
uburn	-12215
wouns	-12216
▁Abel	-12217
▁Coun	-12218
▁Joan	-12219
▁Obed	-12220
▁Peer	-12221
▁Pots	-12222
▁blem	-12223
▁evid	-12224
▁insu	-12225
▁joun	-12226
▁penc	-12227
▁tapp	-12228
▁unde	-12229
▁wisp	-12230
biting	-12231
closed	-12232
flayed	-12233
mocked	-12234
poised	-12235
xander	-12236
▁Abase	-12237
▁Hover	-12238
▁Sends	-12239
▁blend	-12240
▁bowls	-12241
▁casta	-12242
▁colic	-12243
▁drier	-12244
▁peach	-12245
▁skirt	-12246
▁skull	-12247
▁unsub	-12248
berries	-12249
itchery	-12250
omander	-12251
▁Abides	-12252
▁auburn	-12253
▁broach	-12254
▁burned	-12255
▁foully	-12256
▁ingred	-12257
▁kernel	-12258
▁member	-12259
▁pencil	-12260
▁piping	-12261
▁skirts	-12262
▁undeck	-12263
▁vipers	-12264
▁weaken	-12265
▁weakly	-12266
councils	-12267
disposed	-12268
lexander	-12269
supposed	-12270
▁Counsel	-12271
▁angling	-12272
▁blended	-12273
▁bowling	-12274
▁crossly	-12275
▁darkest	-12276
▁defends	-12277
▁dreaded	-12278
▁emperor	-12279
▁feasted	-12280
▁infused	-12281
▁mortals	-12282
▁observe	-12283
▁retires	-12284
▁roaming	-12285
▁roarers	-12286
▁robbing	-12287
▁rooting	-12288
▁rudesby	-12289
▁ruffian	-12290
▁ruinate	-12291
▁runners	-12292
▁ruthful	-12293
▁sanctif	-12294
▁savours	-12295
▁savoury	-12296
▁sealing	-12297
▁seizing	-12298
▁shamest	-12299
OLAS	-12300
bawd	-12301
ukes	-12302
▁syc	-12303
blets	-12304
racts	-12305
regia	-12306
urses	-12307
▁Rash	-12308
▁Read	-12309
▁corm	-12310
▁dubb	-12311
chanic	-12312
▁Asses	-12313
▁Calls	-12314
▁Capel	-12315
▁Reign	-12316
▁crone	-12317
▁docks	-12318
▁expel	-12319
▁explo	-12320
▁extem	-12321
▁fecks	-12322
▁malap	-12323
▁rakes	-12324
▁sycam	-12325
▁weals	-12326
ICHOLAS	-12327
chanics	-12328
lderman	-12329
▁Choose	-12330
▁Poland	-12331
▁badges	-12332
▁bodkin	-12333
▁cormor	-12334
▁direst	-12335
▁expost	-12336
▁extemp	-12337
▁franch	-12338
▁garish	-12339
▁godded	-12340
▁grapes	-12341
▁gripes	-12342
▁judges	-12343
▁nurses	-12344
▁wallow	-12345
▁wedged	-12346
▁Hoisted	-12347
▁Perform	-12348
▁Strives	-12349
▁broiled	-12350
▁cutting	-12351
▁drawing	-12352
▁exploit	-12353
▁expound	-12354
▁extract	-12355
▁garment	-12356
▁garters	-12357
▁goblets	-12358
▁groweth	-12359
▁musical	-12360
▁plainer	-12361
▁poisons	-12362
▁rebukes	-12363
▁regions	-12364
▁sheathe	-12365
▁shineth	-12366
▁shrinks	-12367
▁simplic	-12368
▁sinking	-12369
▁sinners	-12370
▁skilful	-12371
▁slights	-12372
▁soaring	-12373
▁spangle	-12374
▁spawned	-12375
▁spright	-12376
▁stagger	-12377
▁stamped	-12378
▁starkly	-12379
▁started	-12380
▁steeled	-12381
▁steeped	-12382
▁sulphur	-12383
▁sunders	-12384
▁superst	-12385
▁surgeon	-12386
▁sustain	-12387
▁swooned	-12388
▁sworest	-12389
▁sympath	-12390
▁taunted	-12391
▁tearful	-12392
▁tempers	-12393
▁tenants	-12394
▁terrors	-12395
▁thicker	-12396
▁thicket	-12397
▁thrifts	-12398
▁tinkers	-12399
eeps	-12400
ewel	-12401
ivia	-12402
opat	-12403
surp	-12404
▁Few	-12405
▁Hop	-12406
aniel	-12407
crest	-12408
opian	-12409
rhyme	-12410
shrew	-12411
usurp	-12412
▁Arms	-12413
▁Need	-12414
▁Turp	-12415
▁minn	-12416
acrity	-12417
asions	-12418
herent	-12419
opatra	-12420
rissel	-12421
uggard	-12422
usions	-12423
▁Blush	-12424
▁China	-12425
▁Jewel	-12426
▁Livia	-12427
▁Steep	-12428
▁Sword	-12429
▁Turph	-12430
▁Usurp	-12431
▁carts	-12432
▁dames	-12433
▁depop	-12434
▁divid	-12435
▁enlar	-12436
▁minor	-12437
▁reels	-12438
▁whipp	-12439
▁whips	-12440
ilfully	-12441
stinate	-12442
usurped	-12443
▁Hoping	-12444
▁Impair	-12445
▁dishcl	-12446
▁fields	-12447
▁fished	-12448
▁inchar	-12449
▁incont	-12450
▁incred	-12451
▁infold	-12452
▁obeyed	-12453
▁source	-12454
▁spited	-12455
▁sweeps	-12456
atisfied	-12457
pectives	-12458
urnished	-12459
▁Despair	-12460
▁Fewness	-12461
▁Fridays	-12462
▁Grissel	-12463
▁burrows	-12464
▁enlarge	-12465
▁fielded	-12466
▁forgets	-12467
▁minions	-12468
▁minnows	-12469
▁ransack	-12470
▁rupture	-12471
▁seaside	-12472
▁signior	-12473
▁spaniel	-12474
▁thanksg	-12475
▁topping	-12476
▁topsail	-12477
▁tougher	-12478
▁trident	-12479
▁trimmed	-12480
▁turtles	-12481
▁twinkle	-12482
▁tyrants	-12483
▁uncurse	-12484
▁underta	-12485
▁undoubt	-12486
▁unfolds	-12487
▁unlucky	-12488
▁unmanly	-12489
▁unmitig	-12490
▁unpregn	-12491
▁unscarr	-12492
▁unstain	-12493
▁unwares	-12494
▁unweigh	-12495
▁upholds	-12496
▁usurers	-12497
▁vapours	-12498
▁varlets	-12499
Then	-12500
hunt	-12501
sset	-12502
when	-12503
almly	-12504
aunts	-12505
dowry	-12506
ipate	-12507
madam	-12508
nched	-12509
rakes	-12510
robed	-12511
▁AEne	-12512
▁Balm	-12513
▁Boot	-12514
▁vein	-12515
Twould	-12516
gments	-12517
itched	-12518
otched	-12519
unting	-12520
▁Drest	-12521
▁Irish	-12522
▁acorn	-12523
▁aglet	-12524
▁drizz	-12525
▁eaves	-12526
▁gawds	-12527
▁quaff	-12528
▁unapt	-12529
▁untie	-12530
▁untro	-12531
▁wards	-12532
▁wares	-12533
cessant	-12534
enching	-12535
▁AEneas	-12536
▁Calmly	-12537
▁Mortal	-12538
▁chinks	-12539
▁fosset	-12540
▁merest	-12541
▁nonage	-12542
▁posted	-12543
▁reared	-12544
▁seduce	-12545
▁shoots	-12546
▁vaunts	-12547
▁waving	-12548
andrakes	-12549
apparell	-12550
umbering	-12551
▁Hunting	-12552
▁athwart	-12553
▁attends	-12554
▁drizzle	-12555
▁fastest	-12556
▁notched	-12557
▁posting	-12558
▁renders	-12559
▁shorten	-12560
▁speeded	-12561
▁terrest	-12562
▁unstoop	-12563
▁untried	-12564
▁verdure	-12565
▁vessels	-12566
▁viewing	-12567
▁violets	-12568
▁virgins	-12569
▁wailing	-12570
▁waspish	-12571
▁weakest	-12572
▁whatsoe	-12573
▁whetted	-12574
▁whining	-12575
▁winking	-12576
▁witting	-12577
▁woodman	-12578
▁woollen	-12579
▁worries	-12580
▁wrecked	-12581
▁yellows	-12582
▁younker	-12583
▁zealous	-12584
achmakers	-12585
aducement	-12586
atricians	-12587
ccessible	-12588
deserving	-12589
evolences	-12590
fficience	-12591
fidiously	-12592
forcement	-12593
ictorious	-12594
inctively	-12595
itionally	-12596
mnipotent	-12597
negligent	-12598
obstinate	-12599
jump	-12600
much	-12601
urbs	-12602
audis	-12603
ckets	-12604
erers	-12605
plain	-12606
upied	-12607
▁Unpl	-12608
▁ampl	-12609
▁lump	-12610
▁murm	-12611
▁ordn	-12612
▁runa	-12613
▁sobs	-12614
ackets	-12615
amined	-12616
emning	-12617
erning	-12618
oating	-12619
orslet	-12620
rained	-12621
throws	-12622
uesday	-12623
winged	-12624
▁Menel	-12625
▁anvil	-12626
▁asker	-12627
▁basis	-12628
▁brags	-12629
▁glues	-12630
▁medal	-12631
▁mocks	-12632
▁parag	-12633
▁parks	-12634
▁troll	-12635
▁wooer	-12636
▁wooes	-12637
icinius	-12638
▁Bereft	-12639
▁Likely	-12640
▁Muster	-12641
▁asketh	-12642
▁bucket	-12643
▁butler	-12644
▁hopest	-12645
▁laudis	-12646
▁murmur	-12647
▁ordain	-12648
▁pastry	-12649
▁plenty	-12650
▁prizes	-12651
▁shames	-12652
▁splits	-12653
▁tribes	-12654
▁tribut	-12655
Sicinius	-12656
anderers	-12657
erthrows	-12658
erweighs	-12659
▁Hearest	-12660
▁Lambert	-12661
▁Tuesday	-12662
▁askance	-12663
▁caution	-12664
▁corslet	-12665
▁paragon	-12666
▁pockets	-12667
▁repined	-12668
▁runaway	-12669
▁serpigo	-12670
▁suburbs	-12671
▁surpass	-12672
▁unstaid	-12673
▁vouches	-12674
omination	-12675
onducting	-12676
onsidered	-12677
ossessing	-12678
ourisheth	-12679
posterous	-12680
pothecary	-12681
purchased	-12682
quenching	-12683
revocable	-12684
rindstone	-12685
ropertied	-12686
springing	-12687
unicatest	-12688
warranted	-12689
whistling	-12690
▁Abhorred	-12691
▁Allowing	-12692
▁Angelica	-12693
▁Apparent	-12694
▁Approach	-12695
▁Banished	-12696
▁Baptists	-12697
▁Bastards	-12698
▁Bootless	-12699
tua	-12700
dges	-12701
haca	-12702
mony	-12703
said	-12704
shru	-12705
shun	-12706
shut	-12707
tenu	-12708
▁agg	-12709
▁jog	-12710
ashes	-12711
athes	-12712
braid	-12713
bring	-12714
hesus	-12715
hetua	-12716
jured	-12717
merit	-12718
mured	-12719
noble	-12720
shunn	-12721
▁Hush	-12722
▁Perm	-12723
▁slug	-12724
harges	-12725
shrunk	-12726
tences	-12727
▁Groan	-12728
▁Spake	-12729
▁Spurn	-12730
▁demer	-12731
▁excel	-12732
▁obser	-12733
▁rigor	-12734
▁unrel	-12735
ceeding	-12736
onville	-12737
ophetua	-12738
shunned	-12739
tenuate	-12740
▁Custom	-12741
▁Dashes	-12742
▁Gallia	-12743
▁Ithaca	-12744
▁Rhesus	-12745
▁Scales	-12746
▁aggrav	-12747
▁batten	-12748
▁dispar	-12749
▁dispra	-12750
▁hedges	-12751
▁luxury	-12752
▁mourns	-12753
▁squire	-12754
▁stalls	-12755
▁thrush	-12756
▁trusts	-12757
▁warmer	-12758
meriting	-12759
ratching	-12760
▁Already	-12761
▁Charges	-12762
▁Sluiced	-12763
▁Upbraid	-12764
▁abjured	-12765
▁bestial	-12766
▁chronic	-12767
▁concept	-12768
▁dallies	-12769
▁disport	-12770
▁dispute	-12771
▁enchant	-12772
▁endures	-12773
▁ennoble	-12774
▁hazards	-12775
▁loathes	-12776
▁medlars	-12777
▁unbuild	-12778
▁unright	-12779
▁Bonville	-12780
▁Burtonhe	-12781
▁Caucasus	-12782
▁Claribel	-12783
▁Commands	-12784
▁Conceive	-12785
▁Condemns	-12786
▁Contempt	-12787
▁Contract	-12788
▁Controll	-12789
▁Cophetua	-12790
▁Defiance	-12791
▁Deposing	-12792
▁Deserved	-12793
▁Displant	-12794
▁FRANCISC	-12795
▁Forewarn	-12796
▁Hannibal	-12797
▁Howlings	-12798
▁Kindness	-12799
pac	-12800
arac	-12801
inac	-12802
acred	-12803
hours	-12804
inaca	-12805
noint	-12806
rimis	-12807
widow	-12808
▁awed	-12809
▁defl	-12810
▁inky	-12811
▁tawd	-12812
Though	-12813
arters	-12814
assals	-12815
pacing	-12816
▁Hours	-12817
▁Manif	-12818
▁Plots	-12819
▁Sarac	-12820
▁defac	-12821
▁furze	-12822
▁lunes	-12823
▁sours	-12824
▁viand	-12825
forming	-12826
nointed	-12827
vassals	-12828
widowed	-12829
▁Binaca	-12830
▁Camest	-12831
▁Lament	-12832
▁Sacred	-12833
▁Takest	-12834
▁adders	-12835
▁noddle	-12836
▁quired	-12837
▁reform	-12838
▁sadder	-12839
▁swoons	-12840
▁tawdry	-12841
▁winner	-12842
ertainly	-12843
mutation	-12844
quarters	-12845
▁Tedious	-12846
▁Tellest	-12847
▁affable	-12848
▁armours	-12849
▁bespeak	-12850
▁carters	-12851
▁cheated	-12852
▁choughs	-12853
▁costard	-12854
▁deepest	-12855
▁defacer	-12856
▁doublet	-12857
▁humours	-12858
▁rebused	-12859
▁satiety	-12860
▁wakened	-12861
▁Imprimis	-12862
▁Manifest	-12863
▁Marrying	-12864
▁Menelaus	-12865
▁Misguide	-12866
▁Misthink	-12867
▁Olympian	-12868
▁Piercing	-12869
▁Procures	-12870
▁Prodigal	-12871
▁Properly	-12872
▁Prospero	-12873
▁Provoked	-12874
▁Refusing	-12875
▁Reignier	-12876
▁Remnants	-12877
▁Reprieve	-12878
▁Saracens	-12879
▁Scorning	-12880
▁Seducing	-12881
▁Soldiers	-12882
▁Sugarsop	-12883
▁Supplied	-12884
▁Tamworth	-12885
▁Tarquins	-12886
▁Teaching	-12887
▁Thorough	-12888
▁Trembled	-12889
▁Unwieldy	-12890
▁Vagabond	-12891
▁Volumnia	-12892
▁Watching	-12893
▁Welshman	-12894
▁abhorred	-12895
▁absolved	-12896
▁abstains	-12897
▁abstract	-12898
▁abundant	-12899
ubl	-12900
▁Pla	-12901
alley	-12902
ashed	-12903
black	-12904
blade	-12905
cides	-12906
ereth	-12907
etera	-12908
icery	-12909
othed	-12910
ppery	-12911
ublic	-12912
ulner	-12913
▁Says	-12914
▁Vere	-12915
▁gobl	-12916
▁laug	-12917
▁pars	-12918
▁pike	-12919
alleys	-12920
ancing	-12921
honour	-12922
illery	-12923
ortham	-12924
tereth	-12925
▁Haste	-12926
▁Hides	-12927
▁Looks	-12928
▁grubs	-12929
▁humbl	-12930
▁louts	-12931
▁major	-12932
▁meats	-12933
▁taxes	-12934
▁vials	-12935
bolical	-12936
vention	-12937
▁Adopts	-12938
▁Comest	-12939
▁Plough	-12940
▁Public	-12941
▁Wonder	-12942
▁abides	-12943
▁beaver	-12944
▁misuse	-12945
▁monach	-12946
▁movers	-12947
▁peruse	-12948
▁pester	-12949
▁speeds	-12950
▁surest	-12951
▁velure	-12952
ediction	-12953
gressing	-12954
orthampt	-12955
▁Alcides	-12956
▁Wailing	-12957
▁briefer	-12958
▁caetera	-12959
▁coldest	-12960
▁defiled	-12961
▁foolery	-12962
▁foppery	-12963
▁foulest	-12964
▁goblins	-12965
▁humbler	-12966
▁hunting	-12967
▁laughed	-12968
▁misgive	-12969
▁parsley	-12970
▁penetra	-12971
▁sighted	-12972
▁soothed	-12973
▁spicery	-12974
▁valleys	-12975
▁visited	-12976
itigation	-12977
ulnerable	-12978
▁Petrucio	-12979
▁addition	-12980
▁alderman	-12981
▁apoplexy	-12982
▁apparell	-12983
▁argosies	-12984
▁avouches	-12985
▁beguiles	-12986
▁beholder	-12987
▁bemoiled	-12988
▁benefits	-12989
▁bereaved	-12990
▁bestowed	-12991
▁betossed	-12992
▁blameful	-12993
▁blinding	-12994
▁blisters	-12995
▁blusters	-12996
▁boasting	-12997
▁breeches	-12998
▁browsing	-12999
,'--	-13000
▁Via	-13001
▁cac	-13002
elect	-13003
gener	-13004
▁Sups	-13005
▁dang	-13006
▁diam	-13007
▁grad	-13008
▁lays	-13009
▁seni	-13010
ecover	-13011
eously	-13012
hieves	-13013
holder	-13014
icicle	-13015
itably	-13016
nymphs	-13017
▁agate	-13018
▁apron	-13019
▁board	-13020
▁boors	-13021
▁cacod	-13022
▁cared	-13023
▁giant	-13024
▁grind	-13025
▁portc	-13026
▁yearn	-13027
general	-13028
retches	-13029
▁Digest	-13030
▁Longer	-13031
▁Unbuck	-13032
▁discom	-13033
▁gravel	-13034
▁icicle	-13035
▁invect	-13036
▁prompt	-13037
▁sewing	-13038
▁unsafe	-13039
▁Recover	-13040
▁Thieves	-13041
▁cacodem	-13042
▁courser	-13043
▁diamond	-13044
▁discase	-13045
▁discour	-13046
▁dispose	-13047
▁extinct	-13048
▁fighter	-13049
▁flecked	-13050
▁flouted	-13051
▁hardest	-13052
▁merrier	-13053
▁morrows	-13054
▁painter	-13055
▁physics	-13056
▁propose	-13057
▁senator	-13058
▁seniory	-13059
▁sisters	-13060
▁wishful	-13061
haritably	-13062
▁Disclaim	-13063
▁Withhold	-13064
▁Wretches	-13065
▁butchery	-13066
▁buzzards	-13067
▁cardinal	-13068
▁celerity	-13069
▁censured	-13070
▁ceremony	-13071
▁chaplain	-13072
▁characts	-13073
▁chattels	-13074
▁cheapest	-13075
▁chestnut	-13076
▁cleaving	-13077
▁coactive	-13078
▁colliers	-13079
▁combless	-13080
▁conflict	-13081
▁confused	-13082
▁confutes	-13083
▁conjured	-13084
▁conjures	-13085
▁conserve	-13086
▁consists	-13087
▁converse	-13088
▁conveyed	-13089
▁corporal	-13090
▁corrects	-13091
▁covetous	-13092
▁craftily	-13093
▁crossing	-13094
▁crushing	-13095
▁curtains	-13096
▁cushions	-13097
▁dallying	-13098
▁dangling	-13099
gans	-13100
rums	-13101
▁Avo	-13102
▁aye	-13103
▁giv	-13104
agans	-13105
cians	-13106
itute	-13107
mping	-13108
sling	-13109
times	-13110
▁Bury	-13111
▁Hope	-13112
▁Rans	-13113
▁asso	-13114
▁assu	-13115
▁hums	-13116
▁palt	-13117
▁sans	-13118
ansing	-13119
atents	-13120
chieve	-13121
ctator	-13122
erpast	-13123
hanced	-13124
ilding	-13125
▁Avoid	-13126
▁Dicky	-13127
▁Drums	-13128
▁Order	-13129
▁drach	-13130
▁dries	-13131
▁feeds	-13132
▁flaws	-13133
▁lulls	-13134
▁usury	-13135
falling	-13136
iolator	-13137
irdling	-13138
patents	-13139
verdict	-13140
▁Infect	-13141
▁Prefer	-13142
▁assail	-13143
▁associ	-13144
▁bodily	-13145
▁craven	-13146
▁drachm	-13147
▁flouts	-13148
▁goaded	-13149
▁hotter	-13150
▁mercil	-13151
▁organs	-13152
▁pagans	-13153
▁paltry	-13154
▁sawest	-13155
▁widest	-13156
building	-13157
girdling	-13158
violator	-13159
▁Achieve	-13160
▁altered	-13161
▁assuage	-13162
▁combine	-13163
▁gallops	-13164
▁givings	-13165
▁gosling	-13166
▁instate	-13167
▁mettest	-13168
▁motions	-13169
▁ramping	-13170
▁sentine	-13171
▁sounder	-13172
▁tossing	-13173
▁Infected	-13174
▁Marcians	-13175
▁attempts	-13176
▁coverlet	-13177
▁dateless	-13178
▁debating	-13179
▁defended	-13180
▁defender	-13181
▁deflower	-13182
▁degraded	-13183
▁delaying	-13184
▁deluding	-13185
▁demesnes	-13186
▁deposing	-13187
▁descends	-13188
▁descried	-13189
▁detected	-13190
▁diamonds	-13191
▁dictator	-13192
▁diligent	-13193
▁disannul	-13194
▁disbench	-13195
▁disclaim	-13196
▁disprove	-13197
▁disquiet	-13198
▁distaffs	-13199
Bove	-13200
▁Uns	-13201
amens	-13202
eases	-13203
enses	-13204
oyday	-13205
▁Bade	-13206
▁Foes	-13207
▁Move	-13208
▁Real	-13209
▁Sons	-13210
▁Uncl	-13211
▁Unre	-13212
▁chir	-13213
▁chis	-13214
▁choo	-13215
▁dens	-13216
▁hoop	-13217
▁spav	-13218
▁wade	-13219
answer	-13220
erling	-13221
iscate	-13222
tossed	-13223
▁Unman	-13224
▁belch	-13225
▁chine	-13226
▁frets	-13227
▁lusts	-13228
▁nobod	-13229
▁overt	-13230
▁preys	-13231
▁spade	-13232
▁testy	-13233
▁today	-13234
blesome	-13235
ddiness	-13236
diments	-13237
measure	-13238
swerver	-13239
▁Doubly	-13240
▁Hoyday	-13241
▁chisel	-13242
▁costly	-13243
▁courte	-13244
▁devout	-13245
▁distra	-13246
▁lasted	-13247
▁magnan	-13248
▁metres	-13249
▁nobody	-13250
▁overpe	-13251
▁percus	-13252
▁ripens	-13253
▁smothe	-13254
isshapen	-13255
▁Spakest	-13256
▁Unclasp	-13257
▁courtes	-13258
▁courtez	-13259
▁flamens	-13260
▁hedgeho	-13261
▁inquiry	-13262
▁lessons	-13263
▁mockers	-13264
▁reclaim	-13265
▁spavins	-13266
▁untruth	-13267
▁volumes	-13268
attainted	-13269
▁Unmanner	-13270
▁choosing	-13271
▁diseases	-13272
▁distrain	-13273
▁divideth	-13274
▁doomsday	-13275
▁drenched	-13276
▁dumbness	-13277
▁eclipsed	-13278
▁effusion	-13279
▁elevated	-13280
▁enointed	-13281
▁enrolled	-13282
▁epitaphs	-13283
▁exacting	-13284
▁examples	-13285
▁expected	-13286
▁fallible	-13287
▁federary	-13288
▁ferryman	-13289
▁fiercely	-13290
▁finished	-13291
▁firmness	-13292
▁flatness	-13293
▁flowered	-13294
▁fondness	-13295
▁forceful	-13296
▁forenoon	-13297
▁foresaid	-13298
▁foretold	-13299
mbit	-13300
moon	-13301
pits	-13302
tock	-13303
twig	-13304
▁Cog	-13305
▁obe	-13306
gotha	-13307
ircle	-13308
irits	-13309
lfare	-13310
orary	-13311
scent	-13312
twill	-13313
▁Sits	-13314
▁awak	-13315
▁besp	-13316
▁gets	-13317
▁glow	-13318
▁glut	-13319
▁idea	-13320
▁misg	-13321
▁size	-13322
jected	-13323
▁Ambit	-13324
▁Shine	-13325
▁Shout	-13326
▁Shows	-13327
▁adopt	-13328
▁baser	-13329
▁beset	-13330
▁camel	-13331
▁harts	-13332
▁jests	-13333
▁misin	-13334
▁obeis	-13335
▁pates	-13336
▁unshe	-13337
▁wrung	-13338
icircle	-13339
niments	-13340
olgotha	-13341
scented	-13342
service	-13343
▁Engage	-13344
▁Lesser	-13345
▁abject	-13346
▁arbitr	-13347
▁ascent	-13348
▁builds	-13349
▁debate	-13350
▁decked	-13351
▁lightn	-13352
▁manual	-13353
▁misled	-13354
▁passen	-13355
▁tested	-13356
▁underp	-13357
▁unwept	-13358
micircle	-13359
▁January	-13360
▁Ourself	-13361
▁Revolts	-13362
▁Spirits	-13363
▁awakens	-13364
▁benched	-13365
▁bespice	-13366
▁buttock	-13367
▁commits	-13368
▁conject	-13369
▁glowing	-13370
▁helpful	-13371
▁lighter	-13372
▁limited	-13373
▁mattock	-13374
▁welfare	-13375
▁Golgotha	-13376
▁Shouting	-13377
▁complots	-13378
▁dejected	-13379
▁forgiven	-13380
▁freckled	-13381
▁freedoms	-13382
▁gallimau	-13383
▁gamesome	-13384
▁glooming	-13385
▁gossamer	-13386
▁grieving	-13387
▁groaning	-13388
▁grounded	-13389
▁hallooed	-13390
▁handling	-13391
▁hardiest	-13392
▁hardness	-13393
▁hatching	-13394
▁hearkens	-13395
▁heaviest	-13396
▁heighten	-13397
▁heirless	-13398
▁hildings	-13399
achi	-13400
btly	-13401
deaf	-13402
vory	-13403
▁Fix	-13404
▁mix	-13405
aketh	-13406
albot	-13407
field	-13408
mency	-13409
ourer	-13410
whelp	-13411
while	-13412
▁besc	-13413
▁gory	-13414
▁lawy	-13415
▁nods	-13416
▁rids	-13417
▁text	-13418
▁tods	-13419
abbled	-13420
atches	-13421
iddler	-13422
larums	-13423
ontory	-13424
orship	-13425
raymen	-13426
revere	-13427
ulties	-13428
▁Allot	-13429
▁Doing	-13430
▁Judas	-13431
▁Machi	-13432
▁banks	-13433
▁beach	-13434
▁brach	-13435
▁hilts	-13436
▁ivory	-13437
▁leans	-13438
▁pined	-13439
▁rarer	-13440
▁surer	-13441
quisher	-13442
rements	-13443
▁Sovere	-13444
▁Subtly	-13445
▁Talbot	-13446
▁braver	-13447
▁braves	-13448
▁carous	-13449
▁joyous	-13450
▁preach	-13451
▁taketh	-13452
▁walked	-13453
akefield	-13454
ctorship	-13455
iculties	-13456
ordinary	-13457
▁Dabbled	-13458
▁Fiddler	-13459
▁bravery	-13460
▁cleanly	-13461
▁contrar	-13462
▁draymen	-13463
▁dresser	-13464
▁fellest	-13465
▁fitteth	-13466
▁hellish	-13467
▁latches	-13468
▁lawless	-13469
▁lawyers	-13470
▁penalty	-13471
▁summons	-13472
▁trodden	-13473
deafening	-13474
reverence	-13475
▁Machiave	-13476
▁bescreen	-13477
▁helpless	-13478
▁hogshead	-13479
▁homeward	-13480
▁honester	-13481
▁honestly	-13482
▁horsemen	-13483
▁hovering	-13484
▁humanely	-13485
▁hypocris	-13486
▁idolatry	-13487
▁immodest	-13488
▁imposter	-13489
▁incision	-13490
▁informal	-13491
▁inherent	-13492
▁iniquity	-13493
▁instinct	-13494
▁interims	-13495
▁invocate	-13496
▁jealousy	-13497
▁jouncing	-13498
▁kindling	-13499
TIM	-13500
geth	-13501
udge	-13502
walk	-13503
▁Aud	-13504
ORTIM	-13505
alkin	-13506
ifled	-13507
odged	-13508
raged	-13509
udgel	-13510
▁Aged	-13511
▁Sail	-13512
▁Vail	-13513
▁chew	-13514
▁encl	-13515
▁pail	-13516
▁vail	-13517
eseech	-13518
lodged	-13519
▁Beget	-13520
▁Keeps	-13521
▁Stoop	-13522
▁Tarry	-13523
▁Titan	-13524
▁dears	-13525
▁debat	-13526
▁flail	-13527
▁impre	-13528
▁vexed	-13529
▁witty	-13530
Beseech	-13531
ORTIMER	-13532
horsing	-13533
imroses	-13534
melting	-13535
reement	-13536
walking	-13537
▁Dolour	-13538
▁School	-13539
▁begged	-13540
▁border	-13541
▁camels	-13542
▁chever	-13543
▁coxcom	-13544
▁cudgel	-13545
▁finder	-13546
▁impure	-13547
▁kneels	-13548
▁malkin	-13549
▁needer	-13550
▁needly	-13551
▁scapes	-13552
▁taller	-13553
▁traces	-13554
▁Casting	-13555
▁attires	-13556
▁backing	-13557
▁bussing	-13558
▁charter	-13559
▁enclose	-13560
▁enraged	-13561
▁imprese	-13562
▁impress	-13563
▁pitched	-13564
▁servile	-13565
▁shrived	-13566
▁stifled	-13567
▁stinted	-13568
▁totally	-13569
▁Audience	-13570
▁Courtney	-13571
▁MORTIMER	-13572
▁changeth	-13573
▁cheveril	-13574
▁coxcombs	-13575
▁kneeling	-13576
▁lavender	-13577
▁lethargy	-13578
▁loathsom	-13579
▁magician	-13580
▁magnanim	-13581
▁masquers	-13582
▁masquing	-13583
▁matching	-13584
▁measures	-13585
▁meekness	-13586
▁milliner	-13587
▁minority	-13588
▁misdeeds	-13589
▁misdoubt	-13590
▁misgives	-13591
▁misproud	-13592
▁moderate	-13593
▁monachum	-13594
▁morality	-13595
▁mourners	-13596
▁mumbling	-13597
▁mutinies	-13598
▁observed	-13599
:--'	-13600
kins	-13601
poli	-13602
▁Aub	-13603
▁dip	-13604
acled	-13605
assed	-13606
bardy	-13607
cried	-13608
ensed	-13609
heims	-13610
ieces	-13611
skins	-13612
stret	-13613
▁Pins	-13614
▁Reve	-13615
▁cohe	-13616
▁cope	-13617
▁cork	-13618
▁cove	-13619
▁ensk	-13620
▁feod	-13621
▁font	-13622
▁wins	-13623
censed	-13624
ellect	-13625
ifices	-13626
malion	-13627
rances	-13628
reason	-13629
ripoli	-13630
▁Tempt	-13631
▁accur	-13632
▁chafe	-13633
▁chame	-13634
▁coign	-13635
▁ensky	-13636
▁guile	-13637
▁hoars	-13638
▁ladyb	-13639
▁lines	-13640
▁rains	-13641
▁rents	-13642
▁shrug	-13643
▁smart	-13644
catched	-13645
garment	-13646
gmalion	-13647
ombardy	-13648
▁Aubrey	-13649
▁Reveal	-13650
▁Rheims	-13651
▁Served	-13652
▁accout	-13653
▁bowspr	-13654
▁briers	-13655
▁chased	-13656
▁covets	-13657
▁ending	-13658
▁hallow	-13659
▁mistak	-13660
▁nieces	-13661
▁passed	-13662
▁requir	-13663
▁riband	-13664
▁shrill	-13665
▁simile	-13666
incensed	-13667
ygmalion	-13668
▁Compare	-13669
▁Suspect	-13670
▁Treason	-13671
▁Tripoli	-13672
▁accurst	-13673
▁appeals	-13674
▁chamele	-13675
▁cohered	-13676
▁feodary	-13677
▁fisting	-13678
▁generos	-13679
▁gratify	-13680
▁jumpeth	-13681
▁smilest	-13682
▁snapper	-13683
▁vassals	-13684
stretched	-13685
▁Bosworth	-13686
▁Lombardy	-13687
▁admiring	-13688
▁bowsprit	-13689
▁edifices	-13690
▁hallowed	-13691
▁ladybird	-13692
▁observer	-13693
▁occident	-13694
▁offering	-13695
▁official	-13696
▁ordnance	-13697
▁outdares	-13698
▁outgrown	-13699
cos	-13700
oft	-13701
Soft	-13702
cosm	-13703
fied	-13704
osen	-13705
tale	-13706
LEMEN	-13707
Shall	-13708
alect	-13709
alend	-13710
hardy	-13711
hibit	-13712
ildos	-13713
irrel	-13714
osest	-13715
shell	-13716
▁Cret	-13717
▁Foot	-13718
▁Star	-13719
▁Stre	-13720
▁Stru	-13721
▁boss	-13722
▁dale	-13723
▁duck	-13724
▁lush	-13725
▁reft	-13726
TLEMEN	-13727
chosen	-13728
forter	-13729
oldier	-13730
pefied	-13731
rocosm	-13732
titude	-13733
urably	-13734
▁Crete	-13735
▁Stran	-13736
▁Witty	-13737
▁bakes	-13738
▁shaft	-13739
▁stool	-13740
alendar	-13741
soldier	-13742
upefied	-13743
▁Forgot	-13744
▁Starve	-13745
▁Struck	-13746
▁compel	-13747
▁credul	-13748
▁delays	-13749
▁dildos	-13750
▁incest	-13751
▁mought	-13752
▁plumes	-13753
▁sallow	-13754
▁tittle	-13755
ENTLEMEN	-13756
icrocosm	-13757
sheathed	-13758
▁Seeming	-13759
▁awaking	-13760
▁dialect	-13761
▁exhibit	-13762
▁hooting	-13763
▁privily	-13764
▁reverso	-13765
▁sleight	-13766
▁urchins	-13767
▁waverer	-13768
▁youngly	-13769
▁Adriatic	-13770
▁Advantag	-13771
▁Deceived	-13772
▁Strangle	-13773
▁altitude	-13774
▁beheaded	-13775
▁calendar	-13776
▁deathmen	-13777
▁granting	-13778
▁nutshell	-13779
▁overcome	-13780
▁overflow	-13781
▁overfond	-13782
▁overgone	-13783
▁overpeer	-13784
▁painting	-13785
▁pathways	-13786
▁peerless	-13787
▁perdonat	-13788
▁perfumed	-13789
▁personal	-13790
▁picklock	-13791
▁pilgrims	-13792
▁pittance	-13793
▁plainest	-13794
▁plaining	-13795
▁pointing	-13796
▁poisoner	-13797
▁populous	-13798
▁porridge	-13799
mew	-13800
True	-13801
anks	-13802
asks	-13803
ints	-13804
kerc	-13805
llos	-13806
mean	-13807
nche	-13808
pint	-13809
isses	-13810
selme	-13811
sweet	-13812
sworn	-13813
▁Wars	-13814
▁logs	-13815
allows	-13816
arwick	-13817
ercast	-13818
ertile	-13819
ncheon	-13820
ommend	-13821
ourbon	-13822
▁Bores	-13823
▁Masks	-13824
▁emmew	-13825
▁entit	-13826
▁flows	-13827
▁guide	-13828
▁hymns	-13829
▁lieve	-13830
▁mints	-13831
▁trash	-13832
▁trier	-13833
▁tripe	-13834
▁unint	-13835
Commend	-13836
Warwick	-13837
argaret	-13838
kercher	-13839
▁batter	-13840
▁butche	-13841
▁demean	-13842
▁majest	-13843
▁poorly	-13844
▁pranks	-13845
▁reside	-13846
▁rested	-13847
▁revels	-13848
▁sauced	-13849
Margaret	-13850
kerchers	-13851
▁Anselme	-13852
▁Apollos	-13853
▁Berwick	-13854
▁Bourbon	-13855
▁Fertile	-13856
▁Instead	-13857
▁Servile	-13858
▁battery	-13859
▁commiss	-13860
▁distant	-13861
▁draught	-13862
▁entitle	-13863
▁funeral	-13864
▁immured	-13865
▁mallows	-13866
▁nettles	-13867
▁novices	-13868
▁restore	-13869
▁stubble	-13870
▁subdues	-13871
▁talkest	-13872
▁unsworn	-13873
▁vulgars	-13874
▁Florence	-13875
▁deformed	-13876
▁eighteen	-13877
▁evermore	-13878
▁guardant	-13879
▁mightier	-13880
▁prancing	-13881
▁precepts	-13882
▁prefixed	-13883
▁pregnant	-13884
▁presumes	-13885
▁privileg	-13886
▁procures	-13887
▁projects	-13888
▁promises	-13889
▁prompter	-13890
▁properly	-13891
▁property	-13892
▁proposed	-13893
▁proselyt	-13894
▁quailing	-13895
▁quaintly	-13896
▁quarters	-13897
▁ransomed	-13898
▁ravisher	-13899
psy	-13900
uae	-13901
angs	-13902
asps	-13903
lope	-13904
rane	-13905
rite	-13906
▁Blo	-13907
▁Glo	-13908
Peace	-13909
berds	-13910
catch	-13911
isite	-13912
▁accl	-13913
▁cran	-13914
▁peat	-13915
▁rued	-13916
▁rura	-13917
▁tuae	-13918
▁tush	-13919
▁whoo	-13920
armory	-13921
judged	-13922
legged	-13923
ranean	-13924
recked	-13925
velope	-13926
▁Bless	-13927
▁Bloss	-13928
▁Kills	-13929
▁Match	-13930
▁Tying	-13931
▁afire	-13932
▁gipsy	-13933
▁older	-13934
▁pangs	-13935
▁peise	-13936
▁prolo	-13937
▁props	-13938
▁rural	-13939
▁shedd	-13940
▁stile	-13941
▁unite	-13942
▁Antony	-13943
▁Gloves	-13944
▁Scorns	-13945
▁abhors	-13946
▁acclam	-13947
▁bellow	-13948
▁clasps	-13949
▁cranks	-13950
▁intest	-13951
▁liveth	-13952
▁oldest	-13953
▁prouds	-13954
▁servit	-13955
▁singer	-13956
catching	-13957
▁Blossom	-13958
▁Roscius	-13959
▁Wrecked	-13960
▁budding	-13961
▁contest	-13962
▁empties	-13963
▁holiday	-13964
▁whereto	-13965
ertaining	-13966
▁Envelope	-13967
▁Swarming	-13968
▁adjudged	-13969
▁crowning	-13970
▁dissever	-13971
▁graceful	-13972
▁halberds	-13973
▁prologue	-13974
▁recorded	-13975
▁recorder	-13976
▁regarded	-13977
▁reigning	-13978
▁religion	-13979
▁remained	-13980
▁renounce	-13981
▁replying	-13982
▁reposeth	-13983
▁requests	-13984
▁requites	-13985
▁respites	-13986
▁reverent	-13987
▁reversed	-13988
▁revolted	-13989
▁rewarder	-13990
▁rigorous	-13991
▁rounding	-13992
▁royalize	-13993
▁rumourer	-13994
▁saluteth	-13995
▁scornful	-13996
▁scotched	-13997
▁secretly	-13998
▁sedition	-13999
OTH	-14000
abs	-14001
lib	-14002
gery	-14003
pern	-14004
uger	-14005
OTHER	-14006
Saint	-14007
absol	-14008
allab	-14009
alons	-14010
amper	-14011
bable	-14012
liver	-14013
paint	-14014
perch	-14015
perin	-14016
▁Lets	-14017
▁Rush	-14018
▁Shed	-14019
▁Shep	-14020
▁Whip	-14021
▁alab	-14022
▁bump	-14023
▁glib	-14024
▁huge	-14025
▁purg	-14026
▁tips	-14027
acides	-14028
arable	-14029
hamber	-14030
impern	-14031
yonder	-14032
▁Bears	-14033
▁Cotsw	-14034
▁Feast	-14035
▁Lethe	-14036
▁Press	-14037
▁Razed	-14038
▁Wears	-14039
▁appar	-14040
▁auger	-14041
▁depri	-14042
▁disli	-14043
▁drave	-14044
▁flirt	-14045
▁lieth	-14046
▁oaken	-14047
▁remit	-14048
▁solum	-14049
▁spied	-14050
chamber	-14051
parable	-14052
ressing	-14053
▁Sister	-14054
▁append	-14055
▁apples	-14056
▁dumbly	-14057
▁matron	-14058
▁pallab	-14059
▁pamper	-14060
▁sicken	-14061
▁societ	-14062
▁stable	-14063
▁talons	-14064
▁untalk	-14065
▁verier	-14066
▁wanted	-14067
▁warped	-14068
▁widens	-14069
absolver	-14070
▁ANOTHER	-14071
▁Corrupt	-14072
▁Environ	-14073
▁Margery	-14074
▁Partake	-14075
▁Pimpern	-14076
▁Shepard	-14077
▁bepaint	-14078
▁divides	-14079
▁mirrors	-14080
▁poperin	-14081
separable	-14082
▁AEacides	-14083
▁Cotswold	-14084
▁appendix	-14085
▁deprived	-14086
▁disliken	-14087
▁mirthful	-14088
▁probable	-14089
▁scruples	-14090
▁sequence	-14091
▁severely	-14092
▁severing	-14093
▁sharpest	-14094
▁shearers	-14095
▁shedding	-14096
▁shilling	-14097
▁shooting	-14098
▁shouting	-14099
dles	-14100
face	-14101
reds	-14102
▁moi	-14103
▁paw	-14104
▁tub	-14105
iving	-14106
▁Alps	-14107
▁Anch	-14108
▁Begg	-14109
▁Bles	-14110
▁Blow	-14111
▁Face	-14112
▁bull	-14113
▁dewy	-14114
▁hull	-14115
▁huse	-14116
▁mace	-14117
▁moat	-14118
▁paws	-14119
▁repl	-14120
▁scra	-14121
▁trot	-14122
ieving	-14123
parted	-14124
▁apost	-14125
▁fared	-14126
▁jills	-14127
▁moist	-14128
▁mules	-14129
▁scant	-14130
▁scent	-14131
▁soles	-14132
▁stony	-14133
▁toaze	-14134
▁trink	-14135
ceitful	-14136
killing	-14137
oveable	-14138
▁includ	-14139
▁owning	-14140
▁scrape	-14141
▁shreds	-14142
▁softer	-14143
▁spouts	-14144
▁trough	-14145
bewasted	-14146
daughter	-14147
▁Anchors	-14148
▁Beggars	-14149
▁Blessed	-14150
▁Retorts	-14151
▁Seduced	-14152
▁Thereon	-14153
▁apostle	-14154
▁arbitre	-14155
▁blossom	-14156
▁heading	-14157
▁imposed	-14158
▁praying	-14159
▁presage	-14160
▁replant	-14161
▁saddles	-14162
▁science	-14163
believing	-14164
▁Requires	-14165
▁blossoms	-14166
▁chastely	-14167
▁grinning	-14168
▁husewife	-14169
▁includes	-14170
▁moisture	-14171
▁shrouded	-14172
▁shunning	-14173
▁sinister	-14174
▁sisterly	-14175
▁slightly	-14176
▁slippery	-14177
▁sluggard	-14178
▁slumbers	-14179
▁smelling	-14180
▁snarling	-14181
▁snatches	-14182
▁sneaping	-14183
▁sobriety	-14184
▁sorrowed	-14185
▁speedily	-14186
▁squarest	-14187
▁stabbing	-14188
▁standard	-14189
▁standest	-14190
▁startled	-14191
▁startles	-14192
▁starveth	-14193
▁steerage	-14194
▁sterling	-14195
▁stopping	-14196
▁strivest	-14197
▁sureties	-14198
▁survivor	-14199
acc	-14200
aps	-14201
ccat	-14202
gran	-14203
mple	-14204
renz	-14205
skin	-14206
ukew	-14207
vide	-14208
ccata	-14209
claps	-14210
dames	-14211
faith	-14212
gills	-14213
igold	-14214
imple	-14215
pleas	-14216
renzy	-14217
zards	-14218
▁Bacc	-14219
▁Seek	-14220
▁Sigh	-14221
▁bolt	-14222
▁clay	-14223
▁flap	-14224
▁gird	-14225
▁pred	-14226
alment	-14227
astern	-14228
forman	-14229
ontide	-14230
simple	-14231
▁Blows	-14232
▁Heigh	-14233
▁Plays	-14234
▁Spurr	-14235
▁clack	-14236
▁cloth	-14237
▁fines	-14238
▁indig	-14239
▁lukew	-14240
▁neigh	-14241
▁sided	-14242
▁touse	-14243
▁waxen	-14244
granate	-14245
visaged	-14246
▁allied	-14247
▁callat	-14248
▁carpet	-14249
▁defens	-14250
▁frenzy	-14251
▁nation	-14252
▁partis	-14253
▁predic	-14254
▁repute	-14255
▁slowly	-14256
▁truths	-14257
▁woeful	-14258
▁wrings	-14259
formance	-14260
pleasers	-14261
▁Baccare	-14262
▁Officed	-14263
▁Provide	-14264
▁appease	-14265
▁bestrew	-14266
▁comment	-14267
▁eastern	-14268
▁fleeter	-14269
▁hilding	-14270
▁lizards	-14271
▁mislead	-14272
▁plaster	-14273
▁resists	-14274
▁resound	-14275
▁spheres	-14276
▁steaded	-14277
▁trample	-14278
▁tumbled	-14279
▁usuries	-14280
▁Julietta	-14281
▁freelier	-14282
▁guiltier	-14283
▁idleness	-14284
▁lukewarm	-14285
▁marigold	-14286
▁meanings	-14287
▁neighing	-14288
▁noontide	-14289
▁passions	-14290
▁pomander	-14291
▁stoccata	-14292
▁suspects	-14293
▁swashing	-14294
▁sweating	-14295
▁teachest	-14296
▁teacheth	-14297
▁teaching	-14298
▁tempting	-14299
rass	-14300
rtle	-14301
▁rab	-14302
▁siz	-14303
arved	-14304
attle	-14305
rutus	-14306
soled	-14307
▁Goes	-14308
▁barn	-14309
▁brew	-14310
▁robe	-14311
▁warr	-14312
▁wary	-14313
Brutus	-14314
idower	-14315
isping	-14316
juiced	-14317
ndower	-14318
rassus	-14319
riched	-14320
▁Power	-14321
▁breth	-14322
▁clout	-14323
▁crime	-14324
▁dough	-14325
▁fairs	-14326
▁foxes	-14327
▁ruins	-14328
▁sizes	-14329
actions	-14330
derived	-14331
starved	-14332
widower	-14333
▁Fasten	-14334
▁barbed	-14335
▁bathed	-14336
▁blades	-14337
▁cement	-14338
▁graved	-14339
▁greedy	-14340
▁heaved	-14341
▁myrtle	-14342
▁rabbit	-14343
▁reechy	-14344
lendower	-14345
▁Crassus	-14346
▁Prevail	-14347
▁Seventh	-14348
▁Thyself	-14349
▁amiable	-14350
▁contemn	-14351
▁dallied	-14352
▁display	-14353
▁kneaded	-14354
▁lisping	-14355
▁newness	-14356
▁plucker	-14357
▁prattle	-14358
▁waddled	-14359
▁KATARINA	-14360
▁alehouse	-14361
▁breasted	-14362
▁brethren	-14363
▁calmness	-14364
▁demanded	-14365
▁dwelling	-14366
▁enriched	-14367
▁fairness	-14368
▁impudent	-14369
▁noblesse	-14370
▁straying	-14371
▁tenement	-14372
▁thickest	-14373
▁thresher	-14374
▁throwing	-14375
▁thunders	-14376
▁tortured	-14377
▁torturer	-14378
▁touching	-14379
▁tragical	-14380
▁trifling	-14381
▁trinkets	-14382
▁trooping	-14383
▁troubler	-14384
▁trueborn	-14385
▁trusting	-14386
▁twitting	-14387
▁unaching	-14388
▁unanswer	-14389
▁unbreech	-14390
▁unbuckle	-14391
▁unfilial	-14392
▁unfinish	-14393
▁unreason	-14394
▁unrolled	-14395
▁unshapen	-14396
▁unshapes	-14397
▁unsphere	-14398
▁unstable	-14399
▁Ut	-14400
berd	-14401
hung	-14402
lber	-14403
▁Und	-14404
▁Ung	-14405
▁Use	-14406
▁nip	-14407
▁pew	-14408
Nurse	-14409
brary	-14410
chase	-14411
crown	-14412
gings	-14413
imber	-14414
nurse	-14415
ullis	-14416
▁Loud	-14417
▁Mary	-14418
▁Pink	-14419
▁Whoa	-14420
▁flak	-14421
▁flay	-14422
▁leaf	-14423
▁shan	-14424
▁sift	-14425
▁slim	-14426
▁upst	-14427
berdas	-14428
hungry	-14429
lberry	-14430
timber	-14431
tising	-14432
▁Amity	-14433
▁Drown	-14434
▁Going	-14435
▁Marse	-14436
▁Seely	-14437
▁Slave	-14438
▁Utter	-14439
▁buyer	-14440
▁colts	-14441
▁desir	-14442
▁etern	-14443
▁flaky	-14444
▁flown	-14445
▁lease	-14446
▁skies	-14447
▁slays	-14448
▁slimy	-14449
▁swung	-14450
▁twine	-14451
▁unbel	-14452
crowned	-14453
▁Attach	-14454
▁Eating	-14455
▁Revolt	-14456
▁Undone	-14457
▁bridge	-14458
▁hastes	-14459
▁havens	-14460
▁leaven	-14461
▁pentec	-14462
▁shanks	-14463
anointed	-14464
question	-14465
▁Ferrers	-14466
▁Finding	-14467
▁Grecian	-14468
▁emptier	-14469
▁lagging	-14470
▁library	-14471
▁project	-14472
▁refined	-14473
▁sapling	-14474
▁tundish	-14475
▁upstart	-14476
▁village	-14477
berdasher	-14478
onscience	-14479
vertising	-14480
▁Marseill	-14481
▁Petition	-14482
▁Purchase	-14483
▁Ungovern	-14484
▁breaches	-14485
▁desirous	-14486
▁eternity	-14487
▁expiring	-14488
▁hastings	-14489
▁holiness	-14490
▁impotent	-14491
▁lodgings	-14492
▁lordings	-14493
▁mindless	-14494
▁mulberry	-14495
▁physical	-14496
▁upturned	-14497
▁usurpers	-14498
▁uttereth	-14499
Do	-14500
pot	-14501
sal	-14502
atom	-14503
elly	-14504
heal	-14505
ican	-14506
imps	-14507
rece	-14508
sore	-14509
town	-14510
▁Fur	-14511
▁Law	-14512
▁Mal	-14513
▁Rou	-14514
▁dex	-14515
atomy	-14516
cling	-14517
crece	-14518
idies	-14519
iller	-14520
rages	-14521
salms	-14522
▁Adon	-14523
▁Cynt	-14524
▁Hero	-14525
▁Mock	-14526
▁pash	-14527
▁sale	-14528
▁stur	-14529
alogue	-14530
icanor	-14531
icates	-14532
killer	-14533
▁Cance	-14534
▁Curse	-14535
▁Limps	-14536
▁Rouge	-14537
▁Stars	-14538
▁Venus	-14539
▁extir	-14540
▁flock	-14541
▁jelly	-14542
▁slish	-14543
▁theat	-14544
inction	-14545
▁Adonis	-14546
▁Cancel	-14547
▁Cynthi	-14548
▁Daphne	-14549
▁Famous	-14550
▁Lawful	-14551
▁Rougem	-14552
▁dexter	-14553
▁dibble	-14554
▁extirp	-14555
▁orders	-14556
▁pledge	-14557
▁psalms	-14558
▁putter	-14559
▁sturdy	-14560
▁Cynthia	-14561
▁Devised	-14562
▁Further	-14563
▁Lucrece	-14564
▁Melting	-14565
▁Nicanor	-14566
▁anatomy	-14567
▁denials	-14568
▁knowist	-14569
▁muscles	-14570
▁sleeper	-14571
▁theatre	-14572
▁thrusts	-14573
▁circling	-14574
▁dreamers	-14575
▁fornicat	-14576
▁mingling	-14577
▁outrages	-14578
▁passable	-14579
▁speeding	-14580
▁vagabond	-14581
▁vaporous	-14582
▁viewless	-14583
▁vigilant	-14584
▁villages	-14585
▁virginal	-14586
▁vulgarly	-14587
▁wasteful	-14588
▁weakling	-14589
▁wealsmen	-14590
▁weariest	-14591
▁weathers	-14592
▁weighing	-14593
▁welcomer	-14594
▁wiselier	-14595
▁woolvish	-14596
▁worshipp	-14597
▁worships	-14598
▁wronging	-14599
But	-14600
bra	-14601
ckn	-14602
eas	-14603
vid	-14604
zle	-14605
Ding	-14606
hine	-14607
irra	-14608
rely	-14609
roil	-14610
▁Daz	-14611
▁Gen	-14612
▁Hid	-14613
▁Ple	-14614
▁ess	-14615
▁ply	-14616
gging	-14617
lying	-14618
ourly	-14619
▁Geno	-14620
▁Gent	-14621
▁Ovid	-14622
▁fost	-14623
▁simp	-14624
▁unho	-14625
cknock	-14626
dolour	-14627
roilus	-14628
waving	-14629
▁Afore	-14630
▁Beque	-14631
▁Dally	-14632
▁Fates	-14633
▁Genoa	-14634
▁Stood	-14635
▁essay	-14636
▁newer	-14637
▁queas	-14638
▁spits	-14639
▁tirra	-14640
▁upbra	-14641
ermatch	-14642
iplying	-14643
▁Dazzle	-14644
▁Hidest	-14645
▁Hourly	-14646
▁Naught	-14647
▁Pleads	-14648
▁Softer	-14649
▁copest	-14650
▁harden	-14651
▁medler	-14652
▁openly	-14653
▁simply	-14654
▁unholy	-14655
itutions	-14656
▁African	-14657
▁Gentles	-14658
▁Troilus	-14659
▁barking	-14660
▁blindly	-14661
▁cheered	-14662
▁footboy	-14663
▁pitcher	-14664
▁pugging	-14665
▁uncover	-14666
advisedly	-14667
▁Bequeath	-14668
[...]
